{
  "version": "1.0",
  "truncation": null,
  "padding": null,
  "added_tokens": [
    {
      "id": 0,
      "content": "[PAD]",
      "single_word": false,
      "lstrip": false,
      "rstrip": false,
      "normalized": false,
      "special": true
    },
    {
      "id": 1,
      "content": "[UNK]",
      "single_word": false,
      "lstrip": false,
      "rstrip": false,
      "normalized": false,
      "special": true
    },
    {
      "id": 2,
      "content": "[CLS]",
      "single_word": false,
      "lstrip": false,
      "rstrip": false,
      "normalized": false,
      "special": true
    },
    {
      "id": 3,
      "content": "[SEP]",
      "single_word": false,
      "lstrip": false,
      "rstrip": false,
      "normalized": false,
      "special": true
    },
    {
      "id": 4,
      "content": "[MASK]",
      "single_word": false,
      "lstrip": false,
      "rstrip": false,
      "normalized": false,
      "special": true
    }
  ],
  "normalizer": null,
  "pre_tokenizer": {
    "type": "ByteLevel",
    "add_prefix_space": false,
    "trim_offsets": true,
    "use_regex": true
  },
  "post_processor": {
    "type": "ByteLevel",
    "add_prefix_space": true,
    "trim_offsets": true,
    "use_regex": true
  },
  "decoder": {
    "type": "ByteLevel",
    "add_prefix_space": true,
    "trim_offsets": true,
    "use_regex": true
  },
  "model": {
    "type": "BPE",
    "dropout": null,
    "unk_token": null,
    "continuing_subword_prefix": null,
    "end_of_word_suffix": null,
    "fuse_unk": false,
    "byte_fallback": false,
    "ignore_merges": false,
    "vocab": {
      "[PAD]": 0,
      "[UNK]": 1,
      "[CLS]": 2,
      "[SEP]": 3,
      "[MASK]": 4,
      "!": 5,
      "\"": 6,
      "#": 7,
      "$": 8,
      "%": 9,
      "&": 10,
      "'": 11,
      "(": 12,
      ")": 13,
      "*": 14,
      "+": 15,
      ",": 16,
      "-": 17,
      ".": 18,
      "/": 19,
      "0": 20,
      "1": 21,
      "2": 22,
      "3": 23,
      "4": 24,
      "5": 25,
      "6": 26,
      "7": 27,
      "8": 28,
      "9": 29,
      ":": 30,
      ";": 31,
      "<": 32,
      "=": 33,
      ">": 34,
      "?": 35,
      "@": 36,
      "A": 37,
      "B": 38,
      "C": 39,
      "D": 40,
      "E": 41,
      "F": 42,
      "G": 43,
      "H": 44,
      "I": 45,
      "J": 46,
      "K": 47,
      "L": 48,
      "M": 49,
      "N": 50,
      "O": 51,
      "P": 52,
      "Q": 53,
      "R": 54,
      "S": 55,
      "T": 56,
      "U": 57,
      "V": 58,
      "W": 59,
      "X": 60,
      "Y": 61,
      "Z": 62,
      "[": 63,
      "\\": 64,
      "]": 65,
      "^": 66,
      "_": 67,
      "`": 68,
      "a": 69,
      "b": 70,
      "c": 71,
      "d": 72,
      "e": 73,
      "f": 74,
      "g": 75,
      "h": 76,
      "i": 77,
      "j": 78,
      "k": 79,
      "l": 80,
      "m": 81,
      "n": 82,
      "o": 83,
      "p": 84,
      "q": 85,
      "r": 86,
      "s": 87,
      "t": 88,
      "u": 89,
      "v": 90,
      "w": 91,
      "x": 92,
      "y": 93,
      "z": 94,
      "{": 95,
      "|": 96,
      "}": 97,
      "~": 98,
      "¡": 99,
      "¢": 100,
      "£": 101,
      "¤": 102,
      "¥": 103,
      "¦": 104,
      "§": 105,
      "¨": 106,
      "©": 107,
      "ª": 108,
      "«": 109,
      "¬": 110,
      "®": 111,
      "¯": 112,
      "°": 113,
      "±": 114,
      "²": 115,
      "³": 116,
      "´": 117,
      "µ": 118,
      "¶": 119,
      "·": 120,
      "¸": 121,
      "¹": 122,
      "º": 123,
      "»": 124,
      "¼": 125,
      "½": 126,
      "¾": 127,
      "¿": 128,
      "À": 129,
      "Á": 130,
      "Â": 131,
      "Ã": 132,
      "Ä": 133,
      "Å": 134,
      "Æ": 135,
      "Ç": 136,
      "È": 137,
      "É": 138,
      "Ê": 139,
      "Ë": 140,
      "Ì": 141,
      "Í": 142,
      "Î": 143,
      "Ï": 144,
      "Ð": 145,
      "Ñ": 146,
      "Ò": 147,
      "Ó": 148,
      "Ô": 149,
      "Õ": 150,
      "Ö": 151,
      "×": 152,
      "Ø": 153,
      "Ù": 154,
      "Ú": 155,
      "Û": 156,
      "Ü": 157,
      "Ý": 158,
      "Þ": 159,
      "ß": 160,
      "à": 161,
      "á": 162,
      "â": 163,
      "ã": 164,
      "ä": 165,
      "å": 166,
      "æ": 167,
      "ç": 168,
      "è": 169,
      "é": 170,
      "ê": 171,
      "ë": 172,
      "ì": 173,
      "í": 174,
      "î": 175,
      "ï": 176,
      "ð": 177,
      "ñ": 178,
      "ò": 179,
      "ó": 180,
      "ô": 181,
      "õ": 182,
      "ö": 183,
      "÷": 184,
      "ø": 185,
      "ù": 186,
      "ú": 187,
      "û": 188,
      "ü": 189,
      "ý": 190,
      "þ": 191,
      "ÿ": 192,
      "Ā": 193,
      "ā": 194,
      "Ă": 195,
      "ă": 196,
      "Ą": 197,
      "ą": 198,
      "Ć": 199,
      "ć": 200,
      "Ĉ": 201,
      "ĉ": 202,
      "Ċ": 203,
      "ċ": 204,
      "Č": 205,
      "č": 206,
      "Ď": 207,
      "ď": 208,
      "Đ": 209,
      "đ": 210,
      "Ē": 211,
      "ē": 212,
      "Ĕ": 213,
      "ĕ": 214,
      "Ė": 215,
      "ė": 216,
      "Ę": 217,
      "ę": 218,
      "Ě": 219,
      "ě": 220,
      "Ĝ": 221,
      "ĝ": 222,
      "Ğ": 223,
      "ğ": 224,
      "Ġ": 225,
      "ġ": 226,
      "Ģ": 227,
      "ģ": 228,
      "Ĥ": 229,
      "ĥ": 230,
      "Ħ": 231,
      "ħ": 232,
      "Ĩ": 233,
      "ĩ": 234,
      "Ī": 235,
      "ī": 236,
      "Ĭ": 237,
      "ĭ": 238,
      "Į": 239,
      "į": 240,
      "İ": 241,
      "ı": 242,
      "Ĳ": 243,
      "ĳ": 244,
      "Ĵ": 245,
      "ĵ": 246,
      "Ķ": 247,
      "ķ": 248,
      "ĸ": 249,
      "Ĺ": 250,
      "ĺ": 251,
      "Ļ": 252,
      "ļ": 253,
      "Ľ": 254,
      "ľ": 255,
      "Ŀ": 256,
      "ŀ": 257,
      "Ł": 258,
      "ł": 259,
      "Ń": 260,
      "Ġt": 261,
      "on": 262,
      "Ġa": 263,
      "Ġth": 264,
      "or": 265,
      "te": 266,
      "in": 267,
      "Ġthe": 268,
      "al": 269,
      "Ġn": 270,
      "00": 271,
      "en": 272,
      "Ġs": 273,
      "Ġl": 274,
      "er": 275,
      "Ġp": 276,
      "ont": 277,
      "ox": 278,
      "nd": 279,
      "xt": 280,
      "hor": 281,
      "tte": 282,
      "iz": 283,
      "horiz": 284,
      "horizont": 285,
      "ttext": 286,
      "Ġlttext": 287,
      "box": 288,
      "horizontal": 289,
      "boxhorizontal": 290,
      "Ġlttextboxhorizontal": 291,
      "re": 292,
      "Ġf": 293,
      "is": 294,
      "Ġtw": 295,
      "Ġo": 296,
      "Ġc": 297,
      "Ġ1": 298,
      "Ġand": 299,
      "Ġe": 300,
      "ar": 301,
      "Ġb": 302,
      "at": 303,
      "ur": 304,
      "Ġd": 305,
      "50": 306,
      "Ġw": 307,
      "Ġm": 308,
      "Ġin": 309,
      "Ġpo": 310,
      "an": 311,
      "Ġof": 312,
      "ty": 313,
      "Ġis": 314,
      "Ġtwo": 315,
      "zer": 316,
      "Ġon": 317,
      "int": 318,
      "Ġh": 319,
      "Ġpoint": 320,
      "ti": 321,
      "zero": 322,
      "77": 323,
      "Ġ3": 324,
      "65": 325,
      "us": 326,
      "48": 327,
      "it": 328,
      "Ġ2": 329,
      "Ġpr": 330,
      "15": 331,
      "iv": 332,
      "enty": 333,
      "99": 334,
      "Ġfor": 335,
      "ra": 336,
      "000": 337,
      "ic": 338,
      "Ġzero": 339,
      "Ġto": 340,
      "Ġone": 341,
      "ev": 342,
      "und": 343,
      "Ġas": 344,
      "ig": 345,
      "im": 346,
      "if": 347,
      "62": 348,
      "et": 349,
      "âĢ": 350,
      "ow": 351,
      "ree": 352,
      "33": 353,
      "Ġv": 354,
      "qu": 355,
      "Ġtwenty": 356,
      "ul": 357,
      "th": 358,
      "st": 359,
      "even": 360,
      "36": 361,
      "tion": 362,
      "22": 363,
      "40": 364,
      "45": 365,
      "ix": 366,
      "om": 367,
      "Ġhund": 368,
      "72": 369,
      "10": 370,
      "igh": 371,
      "ut": 372,
      "Ġhundr": 373,
      "ol": 374,
      "ct": 375,
      "12": 376,
      "60": 377,
      "our": 378,
      "pp": 379,
      "ice": 380,
      "42": 381,
      "39": 382,
      "il": 383,
      "el": 384,
      "Ġthree": 385,
      "70": 386,
      "tw": 387,
      "32": 388,
      "as": 389,
      "ption": 390,
      "Ġ10": 391,
      "ard": 392,
      "ch": 393,
      "Ġprice": 394,
      "Ġst": 395,
      "Ġk": 396,
      "Ġre": 397,
      "and": 398,
      "35": 399,
      "46": 400,
      "Ġoption": 401,
      "Ġthat": 402,
      "30": 403,
      "Ġequ": 404,
      "ck": 405,
      "ive": 406,
      "ight": 407,
      "Ġbe": 408,
      "rate": 409,
      "18": 410,
      "Ġex": 411,
      "16": 412,
      "Ġr": 413,
      "38": 414,
      "ward": 415,
      "fer": 416,
      "Ġseven": 417,
      "Ġwh": 418,
      "Ġapp": 419,
      "47": 420,
      "Ġsix": 421,
      "own": 422,
      "Ġnin": 423,
      "od": 424,
      "49": 425,
      "Ġrate": 426,
      "19": 427,
      "Ġus": 428,
      "ay": 429,
      "Ġan": 430,
      "Ġg": 431,
      "Ġequat": 432,
      "iffer": 433,
      "52": 434,
      "Ġappr": 435,
      "Ġdiffer": 436,
      "ĠâĢ": 437,
      "80": 438,
      "um": 439,
      "Ġkn": 440,
      "ous": 441,
      "4815": 442,
      "ir": 443,
      "ter": 444,
      "89": 445,
      "17": 446,
      "Ġtwentyon": 447,
      "Ġknown": 448,
      "ousand": 449,
      "Ġthousand": 450,
      "âĢĵ": 451,
      "oxim": 452,
      "Ġuse": 453,
      "Ġj": 454,
      "Ġfive": 455,
      "Ġapproxim": 456,
      "id": 457,
      "Ġare": 458,
      "Ġnine": 459,
      "20": 460,
      "6577": 461,
      "Ġwe": 462,
      "Ġfour": 463,
      "37": 464,
      "un": 465,
      "os": 466,
      "Ġeight": 467,
      "34": 468,
      "ap": 469,
      "ve": 470,
      "31": 471,
      "alu": 472,
      "Ġit": 473,
      "am": 474,
      "Ġpro": 475,
      "Ġthis": 476,
      "69": 477,
      "two": 478,
      "es": 479,
      "87": 480,
      "Ġat": 481,
      "ith": 482,
      "82": 483,
      "pl": 484,
      "Ġvalu": 485,
      "90": 486,
      "ent": 487,
      "bl": 488,
      "ear": 489,
      "67": 490,
      "Ġno": 491,
      "Ġ133": 492,
      "11": 493,
      "Ġy": 494,
      "pe": 495,
      "57": 496,
      "44": 497,
      "Ġforward": 498,
      "ri": 499,
      "Ġwith": 500,
      "ock": 501,
      "Ġ107": 502,
      "teen": 503,
      "ad": 504,
      "ed": 505,
      "ond": 506,
      "800": 507,
      "Ġse": 508,
      "83": 509,
      "14": 510,
      "Ġde": 511,
      "ore": 512,
      "one": 513,
      "Ġ10799": 514,
      "Ġ0": 515,
      "55": 516,
      "ack": 517,
      "Ġcom": 518,
      "Ġ133000": 519,
      "Ġcal": 520,
      "Ġstock": 521,
      "770": 522,
      "Ġmore": 523,
      "abl": 524,
      "Ġ37": 525,
      "isk": 526,
      "Ġper": 527,
      "Ġtim": 528,
      "88": 529,
      "ari": 530,
      "Ġby": 531,
      "Ġ4": 532,
      "Ġass": 533,
      "Ġch": 534,
      "Ġtime": 535,
      "97": 536,
      "8000": 537,
      "end": 538,
      "ang": 539,
      "Ġinte": 540,
      "Ġrisk": 541,
      "ci": 542,
      "ill": 543,
      "500": 544,
      "59": 545,
      "Ġnis": 546,
      "Ġnth": 547,
      "Ġcont": 548,
      "Ġ108000": 549,
      "457": 550,
      "rest": 551,
      "ract": 552,
      "Ġne": 553,
      "Ġcon": 554,
      "Ġtwentyn": 555,
      "seven": 556,
      "Ġmar": 557,
      "four": 558,
      "ort": 559,
      "ver": 560,
      "de": 561,
      "461": 562,
      "etr": 563,
      "rom": 564,
      "Ġsy": 565,
      "ke": 566,
      "Ġcomp": 567,
      "utur": 568,
      "391": 569,
      "Ġback": 570,
      "64": 571,
      "Ġtwon": 572,
      "Ġsh": 573,
      "27": 574,
      "mm": 575,
      "six": 576,
      "68": 577,
      "Ġcan": 578,
      "Ġfrom": 579,
      "Ġinterest": 580,
      "25": 581,
      "odel": 582,
      "5065": 583,
      "481536": 584,
      "mmetr": 585,
      "100": 586,
      "8977": 587,
      "Ġwhen": 588,
      "Ġfutur": 589,
      "Ġbackward": 590,
      "65778977": 591,
      "770457": 592,
      "Ġ37461": 593,
      "39165778977": 594,
      "77045739165778977": 595,
      "Ġ3746177045739165778977": 596,
      "Ġsymmetr": 597,
      "ag": 598,
      "80062": 599,
      "72481536": 600,
      "657772481536": 601,
      "Ġ10799657772481536": 602,
      "Ġ1079965777248153680062": 603,
      "29": 604,
      "Ġal": 605,
      "atil": 606,
      "olatil": 607,
      "Ġthir": 608,
      "Ġmodel": 609,
      "Ġif": 610,
      "cul": 611,
      "twenty": 612,
      "66": 613,
      "13": 614,
      "Ġyear": 615,
      "Ġ5": 616,
      "ere": 617,
      "Ġvolatil": 618,
      "Ġor": 619,
      "85": 620,
      "etw": 621,
      "Ġco": 622,
      "ain": 623,
      "Ġcontract": 624,
      "Ġbond": 625,
      "sn": 626,
      "ĠâĢĿ": 627,
      "ket": 628,
      "Ġsw": 629,
      "een": 630,
      "ĠâĢľ": 631,
      "ion": 632,
      "Ġnthe": 633,
      "thre": 634,
      "onth": 635,
      "res": 636,
      "Ġsu": 637,
      "em": 638,
      "ach": 639,
      "iven": 640,
      "nin": 641,
      "54": 642,
      "Ġpay": 643,
      "ult": 644,
      "Ġfin": 645,
      "Ġmarket": 646,
      "etween": 647,
      "ot": 648,
      "Ġswap": 649,
      "Ġ7": 650,
      "fol": 651,
      "Ġnp": 652,
      "158": 653,
      "369": 654,
      "io": 655,
      "pect": 656,
      "Ġnc": 657,
      "Ġha": 658,
      "ortfol": 659,
      "up": 660,
      "for": 661,
      "Ġpos": 662,
      "506": 663,
      "28": 664,
      "Ġjul": 665,
      "Ġbetween": 666,
      "uld": 667,
      "Ġvari": 668,
      "zeron": 669,
      "24": 670,
      "Ġfif": 671,
      "98": 672,
      "26": 673,
      "ist": 674,
      "Ġportfol": 675,
      "Ġtra": 676,
      "Ġcur": 677,
      "21": 678,
      "6500": 679,
      "ran": 680,
      "58": 681,
      "350": 682,
      "unt": 683,
      "Ġthere": 684,
      "Ġsee": 685,
      "ing": 686,
      "61": 687,
      "eriv": 688,
      "ani": 689,
      "oll": 690,
      "Ġ352": 691,
      "Ġcalcul": 692,
      "eight": 693,
      "Ġ20": 694,
      "Ġcall": 695,
      "âĪ": 696,
      "Ġdel": 697,
      "Ġnot": 698,
      "41": 699,
      "Ġasset": 700,
      "chang": 701,
      "igur": 702,
      "anc": 703,
      "Ġportfolio": 704,
      "ust": 705,
      "Ġcons": 706,
      "Ġzeron": 707,
      "ess": 708,
      "56": 709,
      "ould": 710,
      "atur": 711,
      "tim": 712,
      "6587": 713,
      "twentyn": 714,
      "Ġam": 715,
      "act": 716,
      "69500": 717,
      "ff": 718,
      "Ġonen": 719,
      "15869500": 720,
      "3696587": 721,
      "Ġ35215869500": 722,
      "36965876500": 723,
      "Ġ3521586950036965876500": 724,
      "Ġjultwentyn": 725,
      "Ġderiv": 726,
      "âĪĨ": 727,
      "Ġns": 728,
      "Ġsp": 729,
      "ampl": 730,
      "450": 731,
      "edg": 732,
      "Ġ6": 733,
      "Ġmo": 734,
      "Ġproc": 735,
      "Ġdef": 736,
      "Ġhas": 737,
      "Ġassum": 738,
      "Ġme": 739,
      "ĠâĢĻ": 740,
      "Ġposit": 741,
      "Ġ132": 742,
      "Ġim": 743,
      "enti": 744,
      "Ġun": 745,
      "ount": 746,
      "reas": 747,
      "Ġres": 748,
      "Ġsim": 749,
      "Ġput": 750,
      "ment": 751,
      "ce": 752,
      "Ġso": 753,
      "Ġfl": 754,
      "rike": 755,
      "95": 756,
      "Ġfigur": 757,
      "uro": 758,
      "660": 759,
      "onen": 760,
      "Ġ72": 761,
      "apter": 762,
      "ther": 763,
      "Ġforty": 764,
      "Ġtree": 765,
      "Ġqu": 766,
      "five": 767,
      "ta": 768,
      "Ġstrike": 769,
      "Ġwill": 770,
      "vest": 771,
      "Ġ97": 772,
      "enc": 773,
      "ro": 774,
      "Ġthirty": 775,
      "Ġ00": 776,
      "Ġninety": 777,
      "23": 778,
      "Ġcor": 779,
      "Ġchapter": 780,
      "Ġthan": 781,
      "red": 782,
      "96": 783,
      "ru": 784,
      "pean": 785,
      "Ġeuro": 786,
      "Ġsec": 787,
      "Ġhave": 788,
      "Ġhedg": 789,
      "year": 790,
      "oss": 791,
      "43": 792,
      "ppos": 793,
      "Ġnum": 794,
      "Ġann": 795,
      "Ġexchang": 796,
      "ode": 797,
      "fre": 798,
      "babl": 799,
      "Ġ30": 800,
      "cip": 801,
      "pt": 802,
      "li": 803,
      "Ġwhere": 804,
      "Ġhow": 805,
      "Ġsev": 806,
      "75": 807,
      "ault": 808,
      "Ġnd": 809,
      "Ġwor": 810,
      "92": 811,
      "Ġcas": 812,
      "400": 813,
      "Ġday": 814,
      "Ġeuropean": 815,
      "Ġinvest": 816,
      "Ġbec": 817,
      "Ġcurr": 818,
      "150": 819,
      "ĠâĪĨ": 820,
      "der": 821,
      "ne": 822,
      "nzero": 823,
      "479": 824,
      "Ġnb": 825,
      "Ġsuppos": 826,
      "Ġcompani": 827,
      "ivid": 828,
      "Ġmonth": 829,
      "Ġinc": 830,
      "Ġconsid": 831,
      "ound": 832,
      "rib": 833,
      "Ġnode": 834,
      "Ġchang": 835,
      "under": 836,
      "Ġtran": 837,
      "iti": 838,
      "anci": 839,
      "Ġexampl": 840,
      "86": 841,
      "dex": 842,
      "hort": 843,
      "Ġnf": 844,
      "Ġthre": 845,
      "Ġexpect": 846,
      "Ġseventy": 847,
      "Ġpres": 848,
      "Ġ13299": 849,
      "250": 850,
      "Ġi": 851,
      "Ġprobabl": 852,
      "Ġnm": 853,
      "81": 854,
      "illion": 855,
      "ich": 856,
      "Ġnw": 857,
      "ell": 858,
      "ate": 859,
      "ame": 860,
      "262": 861,
      "Ġmove": 862,
      "Ġshow": 863,
      "ns": 864,
      "Ġna": 865,
      "Ġunder": 866,
      "Ġli": 867,
      "490": 868,
      "to": 869,
      "420": 870,
      "Ġ72000": 871,
      "Ġar": 872,
      "cis": 873,
      "Ġpar": 874,
      "Ġannum": 875,
      "Ġten": 876,
      "erm": 877,
      "Ġq": 878,
      "Ġtrade": 879,
      "Ġdo": 880,
      "Ġdefault": 881,
      "ert": 882,
      "iel": 883,
      "Ġindex": 884,
      "480": 885,
      "Ġfinanci": 886,
      "84": 887,
      "mal": 888,
      "990": 889,
      "eri": 890,
      "ect": 891,
      "ma": 892,
      "79": 893,
      "Ġle": 894,
      "isc": 895,
      "Ġfifty": 896,
      "urn": 897,
      "Ġtn": 898,
      "Ġmillion": 899,
      "Ġbu": 900,
      "Ġeigh": 901,
      "ividend": 902,
      "Ġmatur": 903,
      "oth": 904,
      "ath": 905,
      "Ġ97000": 906,
      "ixt": 907,
      "Ġ8": 908,
      "ann": 909,
      "Ġnand": 910,
      "Ġ1330005": 911,
      "ome": 912,
      "Ġsame": 913,
      "Ġes": 914,
      "53": 915,
      "ual": 916,
      "twon": 917,
      "Ġriskfre": 918,
      "Ġlo": 919,
      "ose": 920,
      "Ġad": 921,
      "Ġshort": 922,
      "Ġwould": 923,
      "Ġwhich": 924,
      "utr": 925,
      "ercis": 926,
      "76": 927,
      "cc": 928,
      "51": 929,
      "rel": 930,
      "Ġwhat": 931,
      "Ġits": 932,
      "Ġeach": 933,
      "tter": 934,
      "Ġall": 935,
      "nal": 936,
      "sh": 937,
      "535": 938,
      "Ġtabl": 939,
      "ong": 940,
      "78": 941,
      "read": 942,
      "200": 943,
      "aus": 944,
      "Ġdelta": 945,
      "turn": 946,
      "ber": 947,
      "Ġexp": 948,
      "ournal": 949,
      "ican": 950,
      "Ġte": 951,
      "three": 952,
      "Ġover": 953,
      "Ġcl": 954,
      "erican": 955,
      "ilar": 956,
      "Ġen": 957,
      "Ġbas": 958,
      "fiven": 959,
      "ers": 960,
      "ten": 961,
      "Ġexercis": 962,
      "Ġsixt": 963,
      "amma": 964,
      "ield": 965,
      "edur": 966,
      "iod": 967,
      "Ġsevenn": 968,
      "Ġperiod": 969,
      "Ġimpl": 970,
      "Ġloss": 971,
      "600": 972,
      "ac": 973,
      "ank": 974,
      "Ġvariabl": 975,
      "Ġamerican": 976,
      "Ġsome": 977,
      "91": 978,
      "ater": 979,
      "Ġother": 980,
      "istrib": 981,
      "7080": 982,
      "Ġprocedur": 983,
      "Ġestim": 984,
      "Ġab": 985,
      "Ġsimilar": 986,
      "ast": 987,
      "arg": 988,
      "63": 989,
      "ake": 990,
      "Ġreturn": 991,
      "se": 992,
      "320": 993,
      "tep": 994,
      "390": 995,
      "ign": 996,
      "Ġx": 997,
      "tn": 998,
      "Ġdisc": 999,
      "74": 1000,
      "redit": 1001,
      "94": 1002,
      "xad": 1003,
      "month": 1004,
      "incip": 1005,
      "Ġyield": 1006,
      "6712": 1007,
      "Ġcompound": 1008,
      "660262": 1009,
      "Ġbank": 1010,
      "Ġup": 1011,
      "Ġthen": 1012,
      "502": 1013,
      "Ġterm": 1014,
      "np": 1015,
      "93": 1016,
      "Ġ40": 1017,
      "are": 1018,
      "Ġdes": 1019,
      "term": 1020,
      "ull": 1021,
      "andard": 1022,
      "istribut": 1023,
      "dn": 1024,
      "Ġ15": 1025,
      "irst": 1026,
      "Ġdec": 1027,
      "Ġins": 1028,
      "Ġspread": 1029,
      "ruct": 1030,
      "Ġappro": 1031,
      "Ġexpl": 1032,
      "Ġrel": 1033,
      "nc": 1034,
      "Ġhigh": 1035,
      "asur": 1036,
      "off": 1037,
      "099": 1038,
      "Ġgo": 1039,
      "Ġpress": 1040,
      "Ġcredit": 1041,
      "71": 1042,
      "nine": 1043,
      "verag": 1044,
      "si": 1045,
      "lin": 1046,
      "Ġcurrenc": 1047,
      "Ġfiven": 1048,
      "360": 1049,
      "Ġfirst": 1050,
      "Ġend": 1051,
      "0000": 1052,
      "ollar": 1053,
      "Ġway": 1054,
      "ant": 1055,
      "nf": 1056,
      "yn": 1057,
      "330": 1058,
      "eth": 1059,
      "Ġthey": 1060,
      "220": 1061,
      "Ġthreen": 1062,
      "Ġ38": 1063,
      "Ġequal": 1064,
      "actor": 1065,
      "3500": 1066,
      "575": 1067,
      "Ġeighty": 1068,
      "upon": 1069,
      "ation": 1070,
      "Ġprincip": 1071,
      "850": 1072,
      "Ġdistribut": 1073,
      "Ġlong": 1074,
      "Ġtranch": 1075,
      "Ġlarg": 1076,
      "Ġjournal": 1077,
      "Ġbecaus": 1078,
      "Ġbecause": 1079,
      "Ġbuy": 1080,
      "Ġaverag": 1081,
      "Ġincreas": 1082,
      "Ġnumber": 1083,
      "ail": 1084,
      "Ġmeasur": 1085,
      "Ġinvestor": 1086,
      "Ġnn": 1087,
      "Ġstep": 1088,
      "Ġpayment": 1089,
      "Ġfourteen": 1090,
      "Ġgamma": 1091,
      "Ġamount": 1092,
      "Ġcost": 1093,
      "ug": 1094,
      "Ġapproach": 1095,
      "vid": 1096,
      "Ġgive": 1097,
      "Ġcash": 1098,
      "Ġob": 1099,
      "Ġnst": 1100,
      "Ġexplain": 1101,
      "Ġpayoff": 1102,
      "Ġdur": 1103,
      "Ġacc": 1104,
      "Ġtwenti": 1105,
      "Ġ1080005": 1106,
      "Ġu": 1107,
      "Ġthese": 1108,
      "Ġ13300": 1109,
      "Ġ9": 1110,
      "Ġdividend": 1111,
      "Ġout": 1112,
      "720": 1113,
      "old": 1114,
      "506000": 1115,
      "Ġtherefor": 1116,
      "Ġstandard": 1117,
      "670": 1118,
      "Ġsixty": 1119,
      "pend": 1120,
      "out": 1121,
      "Ġtrader": 1122,
      "gat": 1123,
      "Ġag": 1124,
      "omi": 1125,
      "tic": 1126,
      "Ġflo": 1127,
      "Ġwere": 1128,
      "Ġfoll": 1129,
      "Ġimpli": 1130,
      "Ġfollow": 1131,
      "fit": 1132,
      "Ġnineteen": 1133,
      "fourn": 1134,
      "Ġ27": 1135,
      "ki": 1136,
      "Ġsn": 1137,
      "Ġfinanc": 1138,
      "Ġnpr": 1139,
      "Ġdesc": 1140,
      "Ġset": 1141,
      "620": 1142,
      "Ġcap": 1143,
      "Ġnumer": 1144,
      "190": 1145,
      "Ġdate": 1146,
      "gin": 1147,
      "Ġresult": 1148,
      "Ġthirteen": 1149,
      "tit": 1150,
      "Ġnor": 1151,
      "Ġinto": 1152,
      "Ġhowev": 1153,
      "Ġcorrel": 1154,
      "lo": 1155,
      "inomi": 1156,
      "180": 1157,
      "950": 1158,
      "ski": 1159,
      "Ġsection": 1160,
      "ec": 1161,
      "Ġsell": 1162,
      "neutr": 1163,
      "Ġwas": 1164,
      "Ġnex": 1165,
      "uss": 1166,
      "tern": 1167,
      "so": 1168,
      "Ġprocess": 1169,
      "chn": 1170,
      "Ġnof": 1171,
      "Ġ25": 1172,
      "Ġmean": 1173,
      "499": 1174,
      "Ġprovid": 1175,
      "Ġcurv": 1176,
      "Ġbl": 1177,
      "Ġ32": 1178,
      "Ġrespect": 1179,
      "648": 1180,
      "120": 1181,
      "Ġvarianc": 1182,
      "Ġnh": 1183,
      "ade": 1184,
      "Ġanal": 1185,
      "olv": 1186,
      "Ġreg": 1187,
      "481": 1188,
      "Ġ29": 1189,
      "700": 1190,
      "tem": 1191,
      "Ġusual": 1192,
      "199": 1193,
      "Ġalso": 1194,
      "4100": 1195,
      "ud": 1196,
      "Ġany": 1197,
      "inu": 1198,
      "Ġear": 1199,
      "677": 1200,
      "159": 1201,
      "thir": 1202,
      "Ġblack": 1203,
      "co": 1204,
      "Ġnew": 1205,
      "Ġdollar": 1206,
      "mall": 1207,
      "348": 1208,
      "479000": 1209,
      "termin": 1210,
      "Ġpl": 1211,
      "152": 1212,
      "uc": 1213,
      "br": 1214,
      "Ġeff": 1215,
      "Ġshould": 1216,
      "unc": 1217,
      "ructur": 1218,
      "bor": 1219,
      "504815": 1220,
      "638": 1221,
      "Ġmade": 1222,
      "Ġnv": 1223,
      "Ġsmall": 1224,
      "threen": 1225,
      "Ġparti": 1226,
      "Ġfloat": 1227,
      "Ġcase": 1228,
      "row": 1229,
      "ly": 1230,
      "Ġpa": 1231,
      "Ġbecom": 1232,
      "Ġninen": 1233,
      "Ġform": 1234,
      "gn": 1235,
      "458": 1236,
      "Ġind": 1237,
      "nn": 1238,
      "Ġfix": 1239,
      "ld": 1240,
      "Ġboth": 1241,
      "Ġsimul": 1242,
      "Ġanaly": 1243,
      "ceiv": 1244,
      "Ġnote": 1245,
      "quir": 1246,
      "445": 1247,
      "Ġonly": 1248,
      "Ġcd": 1249,
      "73": 1250,
      "Ġ42": 1251,
      "Ġdefin": 1252,
      "520": 1253,
      "Ġver": 1254,
      "volv": 1255,
      "fif": 1256,
      "ew": 1257,
      "su": 1258,
      "Ġless": 1259,
      "Ġcurrent": 1260,
      "170": 1261,
      "ugh": 1262,
      "Ġ12": 1263,
      "372": 1264,
      "ninen": 1265,
      "160": 1266,
      "Ġnprice": 1267,
      "Ġel": 1268,
      "Ġfactor": 1269,
      "Ġ100": 1270,
      "Ġ35": 1271,
      "Ġreal": 1272,
      "308": 1273,
      "Ġstructur": 1274,
      "sixn": 1275,
      "Ġprofit": 1276,
      "380": 1277,
      "Ġbasi": 1278,
      "Ġnon": 1279,
      "ener": 1280,
      "Ġrefer": 1281,
      "oney": 1282,
      "Ġclose": 1283,
      "Ġduring": 1284,
      "vi": 1285,
      "110": 1286,
      "Ġdeliv": 1287,
      "460": 1288,
      "440": 1289,
      "Ġshare": 1290,
      "tl": 1291,
      "Ġinvolv": 1292,
      "Ġdoes": 1293,
      "750": 1294,
      "Ġ28": 1295,
      "titut": 1296,
      "day": 1297,
      "Ġtrans": 1298,
      "Ġpre": 1299,
      "Ġmargin": 1300,
      "Ġnegat": 1301,
      "est": 1302,
      "Ġshown": 1303,
      "455": 1304,
      "Ġdepend": 1305,
      "Ġaltern": 1306,
      "Ġlibor": 1307,
      "Ġcontinu": 1308,
      "Ġng": 1309,
      "195": 1310,
      "Ġbut": 1311,
      "ivers": 1312,
      "port": 1313,
      "50400": 1314,
      "Ġreceiv": 1315,
      "con": 1316,
      "Ġmay": 1317,
      "Ġgood": 1318,
      "Ġquot": 1319,
      "Ġdiscuss": 1320,
      "Ġdetermin": 1321,
      "Ġnt": 1322,
      "Ġfund": 1323,
      "just": 1324,
      "1670": 1325,
      "Ġissu": 1326,
      "Ġrequir": 1327,
      "reasur": 1328,
      "6250": 1329,
      "Ġvery": 1330,
      "reat": 1331,
      "Ġtwentyf": 1332,
      "436": 1333,
      "Ġlif": 1334,
      "7750": 1335,
      "ement": 1336,
      "nb": 1337,
      "410": 1338,
      "Ġhull": 1339,
      "427": 1340,
      "122": 1341,
      "489": 1342,
      "512": 1343,
      "Ġnormal": 1344,
      "Ġbinomi": 1345,
      "340": 1346,
      "139": 1347,
      "Ġfifteen": 1348,
      "Ġtechn": 1349,
      "ax": 1350,
      "Ġtend": 1351,
      "gi": 1352,
      "line": 1353,
      "Ġcomm": 1354,
      "Ġlttextline": 1355,
      "Ġlttextlinehorizont": 1356,
      "5060": 1357,
      "Ġ26": 1358,
      "62500": 1359,
      "Ġ19": 1360,
      "002": 1361,
      "317": 1362,
      "Ġtheir": 1363,
      "ustr": 1364,
      "ok": 1365,
      "Ġty": 1366,
      "Ġiniti": 1367,
      "1660": 1368,
      "Ġspot": 1369,
      "fifty": 1370,
      "Ġappl": 1371,
      "478": 1372,
      "Ġnoption": 1373,
      "bit": 1374,
      "Ġcomput": 1375,
      "Ġnfor": 1376,
      "Ġ462500": 1377,
      "ifi": 1378,
      "Ġlead": 1379,
      "pay": 1380,
      "ppen": 1381,
      "Ġgiven": 1382,
      "art": 1383,
      "ile": 1384,
      "365": 1385,
      "Ġequiti": 1386,
      "Ġsecur": 1387,
      "ens": 1388,
      "Ġmake": 1389,
      "man": 1390,
      "âĢ²": 1391,
      "Ġlow": 1392,
      "Ġcar": 1393,
      "Ġlife": 1394,
      "Ġbeen": 1395,
      "890": 1396,
      "ass": 1397,
      "Ġ000": 1398,
      "Ġdown": 1399,
      "90250": 1400,
      "ress": 1401,
      "gnor": 1402,
      "Ġhappen": 1403,
      "304": 1404,
      "urther": 1405,
      "421": 1406,
      "ip": 1407,
      "Ġcoupon": 1408,
      "kol": 1409,
      "Ġadjust": 1410,
      "erton": 1411,
      "och": 1412,
      "671262": 1413,
      "thirty": 1414,
      "479000671262": 1415,
      "Ġ22": 1416,
      "50600": 1417,
      "660262479000671262": 1418,
      "way": 1419,
      "Ġszero": 1420,
      "Ġ97000660262": 1421,
      "Ġinteract": 1422,
      "ochast": 1423,
      "ather": 1424,
      "sevenn": 1425,
      "Ġthirti": 1426,
      "Ġ24": 1427,
      "Ġconsist": 1428,
      "Ġriskneutr": 1429,
      "esn": 1430,
      "Ġvariat": 1431,
      "Ġworld": 1432,
      "elv": 1433,
      "Ġhundred": 1434,
      "rag": 1435,
      "sch": 1436,
      "Ġpresent": 1437,
      "Ġnwh": 1438,
      "gnorm": 1439,
      "Ġnext": 1440,
      "reasuri": 1441,
      "ian": 1442,
      "Ġpur": 1443,
      "399": 1444,
      "Ġill": 1445,
      "conom": 1446,
      "Ġprac": 1447,
      "810": 1448,
      "Ġfifti": 1449,
      "bitrag": 1450,
      "ish": 1451,
      "Ġinstitut": 1452,
      "302": 1453,
      "Ġpaid": 1454,
      "tal": 1455,
      "Ġnre": 1456,
      "Ġedn": 1457,
      "104": 1458,
      "erv": 1459,
      "Ġspe": 1460,
      "evel": 1461,
      "135": 1462,
      "ula": 1463,
      "ou": 1464,
      "all": 1465,
      "nm": 1466,
      "par": 1467,
      "Ġvar": 1468,
      "ript": 1469,
      "428": 1470,
      "ak": 1471,
      "ship": 1472,
      "112": 1473,
      "unction": 1474,
      "Ġtotal": 1475,
      "Ġ45": 1476,
      "Ġisn": 1477,
      "ici": 1478,
      "ument": 1479,
      "Ġnone": 1480,
      "Ġem": 1481,
      "cular": 1482,
      "Ġworth": 1483,
      "671295": 1484,
      "Ġsci": 1485,
      "448": 1486,
      "Ġsof": 1487,
      "ptem": 1488,
      "Ġmarch": 1489,
      "504001670": 1490,
      "676": 1491,
      "322": 1492,
      "Ġnpro": 1493,
      "7290": 1494,
      "Ġunit": 1495,
      "Ġillustr": 1496,
      "920": 1497,
      "Ġunivers": 1498,
      "680": 1499,
      "198": 1500,
      "005065": 1501,
      "Ġeconom": 1502,
      "ationship": 1503,
      "entif": 1504,
      "140": 1505,
      "Ġart": 1506,
      "116": 1507,
      "pos": 1508,
      "Ġtake": 1509,
      "Ġgain": 1510,
      "ide": 1511,
      "anag": 1512,
      "Ġdeliveri": 1513,
      "Ġpractic": 1514,
      "Ġmust": 1515,
      "Ġke": 1516,
      "ukol": 1517,
      "Ġbar": 1518,
      "tterl": 1519,
      "ukolski": 1520,
      "Ġfn": 1521,
      "Ġcam": 1522,
      "anneri": 1523,
      "idg": 1524,
      "bridg": 1525,
      "Ġcambridg": 1526,
      "Ġbus": 1527,
      "535504001670": 1528,
      "1660535504001670": 1529,
      "1660535504001670535": 1530,
      "004815": 1531,
      "Ġindic": 1532,
      "Ġzeronzero": 1533,
      "ptemb": 1534,
      "Ġfore": 1535,
      "Ġ39": 1536,
      "Ġrelat": 1537,
      "low": 1538,
      "115": 1539,
      "162": 1540,
      "Ġrecip": 1541,
      "Ġconst": 1542,
      "agem": 1543,
      "Ġforeign": 1544,
      "Ġ1329985": 1545,
      "Ġlognorm": 1546,
      "Ġsuch": 1547,
      "Ġinter": 1548,
      "Ġ9700066026211": 1549,
      "Ġscientif": 1550,
      "Ġearli": 1551,
      "Ġflanneri": 1552,
      "Ġ462500660262479000671262": 1553,
      "Ġfunction": 1554,
      "462": 1555,
      "Ġwork": 1556,
      "Ġmovement": 1557,
      "Ġabout": 1558,
      "pond": 1559,
      "402": 1560,
      "Ġvaluat": 1561,
      "oles": 1562,
      "Ġmanag": 1563,
      "Ġ97000660262116250": 1564,
      "09": 1565,
      "505065": 1566,
      "Ġrelationship": 1567,
      "Ġtwentytwo": 1568,
      "ror": 1569,
      "358": 1570,
      "Ġeleven": 1571,
      "sibl": 1572,
      "Ġprod": 1573,
      "respond": 1574,
      "Ġteukolski": 1575,
      "Ġcreat": 1576,
      "bin": 1577,
      "vetterl": 1578,
      "300": 1579,
      "per": 1580,
      "Ġpossibl": 1581,
      "Ġdescript": 1582,
      "439": 1583,
      "507": 1584,
      "wo": 1585,
      "Ġ72000660": 1586,
      "Ġ47": 1587,
      "370": 1588,
      "Ġbeing": 1589,
      "Ġparticular": 1590,
      "422": 1591,
      "825": 1592,
      "Ġnj": 1593,
      "8850": 1594,
      "432": 1595,
      "Ġ13300057290": 1596,
      "Ġstrate": 1597,
      "Ġ36": 1598,
      "ite": 1599,
      "Ġnto": 1600,
      "Ġcho": 1601,
      "Ġsecond": 1602,
      "tain": 1603,
      "estion": 1604,
      "77010": 1605,
      "148": 1606,
      "Ġaccount": 1607,
      "Ġthreer": 1608,
      "Ġquestion": 1609,
      "Ġthreerd": 1610,
      "136": 1611,
      "Ġtreasuri": 1612,
      "Ġnvetterl": 1613,
      "1665": 1614,
      "50600077010": 1615,
      "Ġ1330005729050600077010": 1616,
      "362": 1617,
      "Ġeffect": 1618,
      "Ġ80": 1619,
      "Ġ200": 1620,
      "cess": 1621,
      "Ġenter": 1622,
      "ace": 1623,
      "Ġ97000660262116250671295": 1624,
      "eightn": 1625,
      "412": 1626,
      "Ġ199": 1627,
      "146": 1628,
      "Ġnr": 1629,
      "Ġapplic": 1630,
      "cent": 1631,
      "terest": 1632,
      "Ġseptemb": 1633,
      "589": 1634,
      "Ġ44": 1635,
      "cept": 1636,
      "Ġstrategi": 1637,
      "Ġ13300057": 1638,
      "ize": 1639,
      "Ġnthat": 1640,
      "318": 1641,
      "error": 1642,
      "icen": 1643,
      "Ġderivagem": 1644,
      "Ġinst": 1645,
      "Ġflow": 1646,
      "Ġjun": 1647,
      "Ġregul": 1648,
      "ata": 1649,
      "scholes": 1650,
      "evi": 1651,
      "eng": 1652,
      "Ġnrate": 1653,
      "ertain": 1654,
      "Ġgener": 1655,
      "310": 1656,
      "3442": 1657,
      "Ġbusi": 1658,
      "379": 1659,
      "serv": 1660,
      "Ġobtain": 1661,
      "Ġfurther": 1662,
      "Ġsixteen": 1663,
      "Ġtwelv": 1664,
      "por": 1665,
      "amet": 1666,
      "319": 1667,
      "merton": 1668,
      "vers": 1669,
      "Ġsampl": 1670,
      "415": 1671,
      "Ġyou": 1672,
      "Ġninetynin": 1673,
      "Ġ17": 1674,
      "Ġsize": 1675,
      "orrow": 1676,
      "Ġwhite": 1677,
      "6070": 1678,
      "Ġtransact": 1679,
      "740": 1680,
      "nt": 1681,
      "Ġsettl": 1682,
      "Ġhundredn": 1683,
      "615": 1684,
      "Ġmost": 1685,
      "332": 1686,
      "468": 1687,
      "Ġfourn": 1688,
      "Ġnde": 1689,
      "Ġmani": 1690,
      "rol": 1691,
      "Ġnstock": 1692,
      "4712": 1693,
      "315": 1694,
      "438": 1695,
      "emb": 1696,
      "Ġ60": 1697,
      "Ġtwonzero": 1698,
      "8234": 1699,
      "442": 1700,
      "Ġ50": 1701,
      "av": 1702,
      "48150": 1703,
      "Ġparamet": 1704,
      "Ġcorrespond": 1705,
      "iqu": 1706,
      "eviat": 1707,
      "rect": 1708,
      "306": 1709,
      "938": 1710,
      "Ġreach": 1711,
      "312": 1712,
      "umm": 1713,
      "Ġ11": 1714,
      "Ġchoos": 1715,
      "forty": 1716,
      "Ġpricen": 1717,
      "Ġcarlo": 1718,
      "Ġlater": 1719,
      "Ġdescrib": 1720,
      "Ġjuli": 1721,
      "veri": 1722,
      "Ġ21": 1723,
      "345": 1724,
      "418": 1725,
      "Ġaa": 1726,
      "Ġrather": 1727,
      "eni": 1728,
      "Ġdata": 1729,
      "50234": 1730,
      "Ġ13299857080": 1731,
      "Ġdiscount": 1732,
      "50650": 1733,
      "Ġ349": 1734,
      "tan": 1735,
      "Ġobserv": 1736,
      "005": 1737,
      "Ġmoney": 1738,
      "blem": 1739,
      "ranch": 1740,
      "ep": 1741,
      "Ġtechniqu": 1742,
      "ject": 1743,
      "ough": 1744,
      "Ġdeltan": 1745,
      "Ġ156070": 1746,
      "1591665": 1747,
      "502341591665": 1748,
      "Ġ156070502341591665": 1749,
      "Ġ1560705023415916658234": 1750,
      "emat": 1751,
      "athemat": 1752,
      "240": 1753,
      "628": 1754,
      "Ġ18": 1755,
      "wn": 1756,
      "Ġmont": 1757,
      "Ġsometim": 1758,
      "Ġstate": 1759,
      "342": 1760,
      "eutr": 1761,
      "oy": 1762,
      "389": 1763,
      "Ġ9700": 1764,
      "690": 1765,
      "nst": 1766,
      "132": 1767,
      "433": 1768,
      "itu": 1769,
      "670575": 1770,
      "Ġnare": 1771,
      "Ġ10800": 1772,
      "Ġdeltaneutr": 1773,
      "edn": 1774,
      "Ġcertain": 1775,
      "ori": 1776,
      "Ġ157": 1777,
      "Ġsub": 1778,
      "598": 1779,
      "Ġclear": 1780,
      "Ġmathemat": 1781,
      "Ġeightn": 1782,
      "form": 1783,
      "Ġonenzero": 1784,
      "Ġwhy": 1785,
      "Ġ132000": 1786,
      "118": 1787,
      "ob": 1788,
      "Ġcds": 1789,
      "Ġarbitrag": 1790,
      "Ġdeviat": 1791,
      "Ġeighteen": 1792,
      "Ġ287": 1793,
      "mi": 1794,
      "Ġmax": 1795,
      "Ġcontrol": 1796,
      "652": 1797,
      "of": 1798,
      "rad": 1799,
      "chas": 1800,
      "Ġncont": 1801,
      "632": 1802,
      "470": 1803,
      "1648": 1804,
      "Ġproblem": 1805,
      "105": 1806,
      "Ġanalysi": 1807,
      "102": 1808,
      "Ġnvalu": 1809,
      "408": 1810,
      "imit": 1811,
      "Ġcapit": 1812,
      "Ġ177": 1813,
      "gag": 1814,
      "Ġfe": 1815,
      "Ġcould": 1816,
      "Ġrealiz": 1817,
      "coupon": 1818,
      "377": 1819,
      "aili": 1820,
      "Ġwell": 1821,
      "8817": 1822,
      "Ġsitu": 1823,
      "Ġhe": 1824,
      "172": 1825,
      "Ġpath": 1826,
      "ortgag": 1827,
      "Ġinsur": 1828,
      "676800": 1829,
      "Ġstochast": 1830,
      "ethod": 1831,
      "430": 1832,
      "6518": 1833,
      "ondit": 1834,
      "Ġborrow": 1835,
      "Ġ46": 1836,
      "487": 1837,
      "eigh": 1838,
      "Ġninenzero": 1839,
      "fter": 1840,
      "op": 1841,
      "Ġnl": 1842,
      "Ġanoth": 1843,
      "âĢ³": 1844,
      "ole": 1845,
      "older": 1846,
      "997": 1847,
      "Ġfournzero": 1848,
      "Ġbuil": 1849,
      "3448": 1850,
      "ploy": 1851,
      "Ġatwo": 1852,
      "133": 1853,
      "nr": 1854,
      "uch": 1855,
      "409": 1856,
      "edi": 1857,
      "unter": 1858,
      "Ġgeneral": 1859,
      "492": 1860,
      "oc": 1861,
      "Ġcurvatur": 1862,
      "Ġstart": 1863,
      "Ġbn": 1864,
      "6760": 1865,
      "Ġlike": 1866,
      "618": 1867,
      "kn": 1868,
      "3799": 1869,
      "Ġsixn": 1870,
      "Ġeightnzero": 1871,
      "Ġlevel": 1872,
      "vant": 1873,
      "vantag": 1874,
      "888": 1875,
      "Ġ312": 1876,
      "Ġev": 1877,
      "635": 1878,
      "ength": 1879,
      "Ġexpir": 1880,
      "Ġgre": 1881,
      "Ġmat": 1882,
      "Ġsevennzero": 1883,
      "Ġseventeen": 1884,
      "Ġformula": 1885,
      "138": 1886,
      "429": 1887,
      "497": 1888,
      "Ġbr": 1889,
      "Ġsituat": 1890,
      "ww": 1891,
      "Ġ40512": 1892,
      "344259": 1893,
      "Ġour": 1894,
      "316": 1895,
      "Ġdecemb": 1896,
      "Ġthreenzero": 1897,
      "Ġ145": 1898,
      "ploye": 1899,
      "6778817": 1900,
      "4712344259": 1901,
      "Ġ405124712344259": 1902,
      "Ġ4051247123442596778817": 1903,
      "417": 1904,
      "Ġmethod": 1905,
      "Ġop": 1906,
      "Ġcent": 1907,
      "pr": 1908,
      "Ġdaili": 1909,
      "uct": 1910,
      "Ġcommod": 1911,
      "Ġthose": 1912,
      "328": 1913,
      "parti": 1914,
      "510": 1915,
      "Ġsc": 1916,
      "ason": 1917,
      "Ġafter": 1918,
      "Ġpn": 1919,
      "ividendpay": 1920,
      "Ġ82": 1921,
      "6590": 1922,
      "Ġcount": 1923,
      "Ġwho": 1924,
      "Ġsm": 1925,
      "368": 1926,
      "omp": 1927,
      "ao": 1928,
      "Ġmortgag": 1929,
      "435": 1930,
      "Ġneed": 1931,
      "498": 1932,
      "419": 1933,
      "Ġnond": 1934,
      "Ġsixnzero": 1935,
      "Ġassumpt": 1936,
      "ntwenty": 1937,
      "Ġmin": 1938,
      "Ġfivenzero": 1939,
      "twotwo": 1940,
      "130": 1941,
      "arch": 1942,
      "unterparti": 1943,
      "Ġincom": 1944,
      "225": 1945,
      "625": 1946,
      "ove": 1947,
      "228": 1948,
      "Ġ144": 1949,
      "668": 1950,
      "382": 1951,
      "ither": 1952,
      "Ġtype": 1953,
      "Ġsettlement": 1954,
      "nth": 1955,
      "rac": 1956,
      "Ġcompar": 1957,
      "Ġkeep": 1958,
      "658": 1959,
      "554": 1960,
      "Ġ05": 1961,
      "Ġimport": 1962,
      "Ġcorpor": 1963,
      "ĠâĢ¦": 1964,
      "472": 1965,
      "Ġappli": 1966,
      "6798": 1967,
      "Ġac": 1968,
      "Ġln": 1969,
      "642": 1970,
      "ingn": 1971,
      "Ġzerocoupon": 1972,
      "Ġlower": 1973,
      "tiv": 1974,
      "637": 1975,
      "Ġbel": 1976,
      "Ġholder": 1977,
      "eg": 1978,
      "188": 1979,
      "147": 1980,
      "405": 1981,
      "327": 1982,
      "142": 1983,
      "Ġorder": 1984,
      "Ġside": 1985,
      "Ġnjournal": 1986,
      "254": 1987,
      "Ġinterv": 1988,
      "Ġthirtytwo": 1989,
      "72436": 1990,
      "416": 1991,
      "Ġdz": 1992,
      "Ġgreater": 1993,
      "Ġthreemonth": 1994,
      "35317": 1995,
      "622": 1996,
      "464100": 1997,
      "Ġ70": 1998,
      "Ġproduc": 1999,
      "Ġlength": 2000,
      "rough": 2001,
      "Ġninterest": 2002,
      "437": 2003,
      "rument": 2004,
      "Ġ10800055": 2005,
      "346": 2006,
      "arter": 2007,
      "48972436": 2008,
      "Ġ34948972436": 2009,
      "679811": 2010,
      "35317679811": 2011,
      "Ġ3494897243635317679811": 2012,
      "Ġeffici": 2013,
      "Ġsmaller": 2014,
      "nj": 2015,
      "506520": 2016,
      "Ġlimit": 2017,
      "125": 2018,
      "222": 2019,
      "Ġoptionsn": 2020,
      "474100": 2021,
      "Ġforti": 2022,
      "802": 2023,
      "Ġemploye": 2024,
      "wh": 2025,
      "Ġlarger": 2026,
      "Ġnass": 2027,
      "Ġwww": 2028,
      "Ġ48": 2029,
      "aln": 2030,
      "Ġdecreas": 2031,
      "49955": 2032,
      "Ġ77": 2033,
      "398": 2034,
      "579": 2035,
      "Ġtwentynin": 2036,
      "Ġtwentyfour": 2037,
      "Ġregard": 2038,
      "Ġnfigur": 2039,
      "Ġarg": 2040,
      "Ġsofr": 2041,
      "Ġz": 2042,
      "istor": 2043,
      "annu": 2044,
      "Ġ133000570": 2045,
      "Ġlook": 2046,
      "zerozero": 2047,
      "Ġexpos": 2048,
      "Ġ43799": 2049,
      "Ġnondividendpay": 2050,
      "Ġ437991660535504001670535": 2051,
      "Ġimm": 2052,
      "Ġfiftythre": 2053,
      "Ġsens": 2054,
      "Ġcox": 2055,
      "rier": 2056,
      "cal": 2057,
      "ewski": 2058,
      "ĠÎ": 2059,
      "vert": 2060,
      "3893": 2061,
      "Ġtheta": 2062,
      "3450": 2063,
      "ollater": 2064,
      "Ġoff": 2065,
      "won": 2066,
      "Ġact": 2067,
      "4815507": 2068,
      "Ġ17780": 2069,
      "999": 2070,
      "Ġsemi": 2071,
      "307": 2072,
      "bb": 2073,
      "va": 2074,
      "Ġalway": 2075,
      "137": 2076,
      "Ġred": 2077,
      "Ġross": 2078,
      "apt": 2079,
      "505": 2080,
      "rant": 2081,
      "Ġexte": 2082,
      "olut": 2083,
      "640": 2084,
      "til": 2085,
      "ab": 2086,
      "Ġquarter": 2087,
      "338": 2088,
      "tect": 2089,
      "Ġnow": 2090,
      "Ġ1329985708050600": 2091,
      "Ġpurchas": 2092,
      "pic": 2093,
      "Ġimp": 2094,
      "Ġinstrument": 2095,
      "801": 2096,
      "Ġjune": 2097,
      "Ġnequ": 2098,
      "Ġnus": 2099,
      "Ġ3677": 2100,
      "Ġunc": 2101,
      "Ġhad": 2102,
      "ild": 2103,
      "Ġpercent": 2104,
      "ynam": 2105,
      "Ġnne": 2106,
      "ern": 2107,
      "182": 2108,
      "25034": 2109,
      "Ġsemiannu": 2110,
      "Ġ1329985708050600676800": 2111,
      "Ġbo": 2112,
      "Ġbelow": 2113,
      "602": 2114,
      "80250": 2115,
      "117": 2116,
      "748": 2117,
      "168": 2118,
      "Ġncontract": 2119,
      "481540": 2120,
      "Ġ379": 2121,
      "Ġnthis": 2122,
      "roup": 2123,
      "Ġnfin": 2124,
      "50600076": 2125,
      "Ġnhedg": 2126,
      "352": 2127,
      "apsh": 2128,
      "apshot": 2129,
      "Ġrem": 2130,
      "385": 2131,
      "Ġie": 2132,
      "192": 2133,
      "17810": 2134,
      "Ġ3849": 2135,
      "uari": 2136,
      "Ġread": 2137,
      "Ġnsh": 2138,
      "46410049955": 2139,
      "Ġ1778046410049955": 2140,
      "Ġ1778046410049955474100": 2141,
      "6200": 2142,
      "Ġmuch": 2143,
      "Ġbuiltn": 2144,
      "3204815507": 2145,
      "Ġ108000553204815507": 2146,
      "Ġ1080005532048155078850": 2147,
      "Ġlast": 2148,
      "nineteen": 2149,
      "305": 2150,
      "Ġplus": 2151,
      "165": 2152,
      "Ġ3421": 2153,
      "708025034": 2154,
      "390938": 2155,
      "Ġ386518": 2156,
      "3500372": 2157,
      "4557750": 2158,
      "77503893": 2159,
      "5893500372": 2160,
      "659090250": 2161,
      "25477503893": 2162,
      "Ġ36775893500372": 2163,
      "80250390938": 2164,
      "178103500": 2165,
      "Ġ384925477503893": 2166,
      "Ġ3421708025034": 2167,
      "Ġ38651880250390938": 2168,
      "Ġ36775893500372178103500": 2169,
      "Ġ3849254775038934557750": 2170,
      "Ġ3421708025034659090250": 2171,
      "Ġ3865188025039093890250": 2172,
      "Ġbarrier": 2173,
      "Ġmight": 2174,
      "me": 2175,
      "Ġtwentysix": 2176,
      "828": 2177,
      "698": 2178,
      "Ġfiveyear": 2179,
      "nh": 2180,
      "inc": 2181,
      "Ġfact": 2182,
      "Ġeither": 2183,
      "esh": 2184,
      "Ġ2020": 2185,
      "Ġadvantag": 2186,
      "Ġadapt": 2187,
      "Ġnet": 2188,
      "cl": 2189,
      "fiv": 2190,
      "Ġgold": 2191,
      "Ġ147": 2192,
      "Ġimmedi": 2193,
      "Ġconv": 2194,
      "air": 2195,
      "Ġthem": 2196,
      "Ġoneyear": 2197,
      "Ġabove": 2198,
      "Ġcondit": 2199,
      "Ġdynam": 2200,
      "465": 2201,
      "tyn": 2202,
      "Ġexposur": 2203,
      "610": 2204,
      "4790": 2205,
      "Ġpound": 2206,
      "627": 2207,
      "525": 2208,
      "lewski": 2209,
      "Ġerror": 2210,
      "iglewski": 2211,
      "804": 2212,
      "1600": 2213,
      "Ġcounterparti": 2214,
      "6139": 2215,
      "Ġagain": 2216,
      "482": 2217,
      "Ġsmile": 2218,
      "3600": 2219,
      "Ġntwo": 2220,
      "Ġnapp": 2221,
      "ili": 2222,
      "imum": 2223,
      "Ġreason": 2224,
      "Ġ13300047": 2225,
      "eleven": 2226,
      "Ġndiffer": 2227,
      "197": 2228,
      "Ġdt": 2229,
      "Ġbranch": 2230,
      "167": 2231,
      "etwo": 2232,
      "Ġtwentyseven": 2233,
      "Ġbase": 2234,
      "ah": 2235,
      "612": 2236,
      "Ġjust": 2237,
      "169": 2238,
      "Ġncon": 2239,
      "4510": 2240,
      "Ġpurpos": 2241,
      "Ġmesh": 2242,
      "Ġvers": 2243,
      "Ġtoday": 2244,
      "bu": 2245,
      "Ġhistor": 2246,
      "ex": 2247,
      "495": 2248,
      "Ġtr": 2249,
      "oront": 2250,
      "Ġfinal": 2251,
      "plic": 2252,
      "Ġyen": 2253,
      "Ġ13": 2254,
      "Ġconstant": 2255,
      "Ġreco": 2256,
      "Ġthrough": 2257,
      "ste": 2258,
      "Ġbbb": 2259,
      "iff": 2260,
      "ng": 2261,
      "ival": 2262,
      "425": 2263,
      "Ġ96": 2264,
      "Ġ14": 2265,
      "Ġearn": 2266,
      "452": 2267,
      "dit": 2268,
      "ulti": 2269,
      "perti": 2270,
      "Ġwri": 2271,
      "1350": 2272,
      "Ġdeclin": 2273,
      "Ġtypic": 2274,
      "Ġ115": 2275,
      "605": 2276,
      "900": 2277,
      "325": 2278,
      "Ġsixti": 2279,
      "cp": 2280,
      "Ġ500": 2281,
      "fin": 2282,
      "time": 2283,
      "Ġconf": 2284,
      "zz": 2285,
      "Ġ385": 2286,
      "45862": 2287,
      "397": 2288,
      "4200": 2289,
      "Ġgao": 2290,
      "Ġreduc": 2291,
      "Ġnbe": 2292,
      "otman": 2293,
      "339": 2294,
      "Ġremain": 2295,
      "zard": 2296,
      "1100": 2297,
      "nl": 2298,
      "127": 2299,
      "4600": 2300,
      "177": 2301,
      "reement": 2302,
      "son": 2303,
      "Ġoil": 2304,
      "Ġdn": 2305,
      "Ġspec": 2306,
      "Ġsnapshot": 2307,
      "Ġfiglewski": 2308,
      "fn": 2309,
      "ift": 2310,
      "702": 2311,
      "1950": 2312,
      "Ġ33": 2313,
      "630": 2314,
      "Ġthird": 2315,
      "357": 2316,
      "650": 2317,
      "Ġrn": 2318,
      "nv": 2319,
      "Ġexact": 2320,
      "05": 2321,
      "Ġnat": 2322,
      "enari": 2323,
      "utoront": 2324,
      "70150": 2325,
      "utorontoc": 2326,
      "stand": 2327,
      "34862": 2328,
      "329": 2329,
      "Ġright": 2330,
      "ost": 2331,
      "usiel": 2332,
      "usiela": 2333,
      "quenc": 2334,
      "1200": 2335,
      "187": 2336,
      "Ġpercentag": 2337,
      "otmanutorontoc": 2338,
      "Ġoften": 2339,
      "4814": 2340,
      "Ġexpress": 2341,
      "Ġ190": 2342,
      "Ġregular": 2343,
      "Ġface": 2344,
      "Ġccp": 2345,
      "Ġhere": 2346,
      "fiftyonen": 2347,
      "ov": 2348,
      "stem": 2349,
      "129": 2350,
      "Ġnrisk": 2351,
      "elf": 2352,
      "128": 2353,
      "608": 2354,
      "3200": 2355,
      "695": 2356,
      "Ġquit": 2357,
      "30838": 2358,
      "fault": 2359,
      "Ġsold": 2360,
      "ump": 2361,
      "binste": 2362,
      "binstein": 2363,
      "Ġ16": 2364,
      "335": 2365,
      "469": 2366,
      "ahull": 2367,
      "Ġ7200066057": 2368,
      "ure": 2369,
      "60150": 2370,
      "osit": 2371,
      "Ġimplement": 2372,
      "728": 2373,
      "Ġndisc": 2374,
      "arek": 2375,
      "otmanutorontocahull": 2376,
      "Ġnwith": 2377,
      "00067": 2378,
      "asi": 2379,
      "Ġ72000660575": 2380,
      "anuari": 2381,
      "558": 2382,
      "145": 2383,
      "Ġusd": 2384,
      "rand": 2385,
      "earch": 2386,
      "tent": 2387,
      "Ġnas": 2388,
      "Ġrat": 2389,
      "8150600076": 2390,
      "Ġ1330005708150600076": 2391,
      "Ġ1330005708150600076801": 2392,
      "Ġgarch": 2393,
      "75308": 2394,
      "344875308": 2395,
      "Ġ37900067": 2396,
      "30838344875308": 2397,
      "Ġ3790006730838344875308": 2398,
      "Ġhigher": 2399,
      "648450": 2400,
      "Ġraten": 2401,
      "Ġriski": 2402,
      "10070150": 2403,
      "15210070150": 2404,
      "68060150": 2405,
      "Ġ14768060150": 2406,
      "Ġ1476806015015210070150": 2407,
      "475": 2408,
      "108": 2409,
      "com": 2410,
      "Ġbound": 2411,
      "Ġncal": 2412,
      "Ġdeal": 2413,
      "Ġ1079965": 2414,
      "Ġ02": 2415,
      "Ġint": 2416,
      "Ġagreement": 2417,
      "202": 2418,
      "enario": 2419,
      "Ġnbeen": 2420,
      "Ġprove": 2421,
      "Ġhazard": 2422,
      "Ġitself": 2423,
      "729": 2424,
      "fi": 2425,
      "Ġfortyfour": 2426,
      "359": 2427,
      "bru": 2428,
      "twar": 2429,
      "build": 2430,
      "bruari": 2431,
      "ris": 2432,
      "Ġ1200": 2433,
      "Ġdra": 2434,
      "Ġportfolion": 2435,
      "night": 2436,
      "Ġfzero": 2437,
      "Ġnonen": 2438,
      "337": 2439,
      "ethre": 2440,
      "149": 2441,
      "Ġtri": 2442,
      "662": 2443,
      "634": 2444,
      "ortun": 2445,
      "Ġsinc": 2446,
      "Ġthatn": 2447,
      "1850": 2448,
      "Ġ1199": 2449,
      "view": 2450,
      "twos": 2451,
      "485": 2452,
      "ationn": 2453,
      "enior": 2454,
      "ractic": 2455,
      "645": 2456,
      "109": 2457,
      "Ġproperti": 2458,
      "Ġdi": 2459,
      "olum": 2460,
      "7236": 2461,
      "anin": 2462,
      "twenti": 2463,
      "5567": 2464,
      "ingl": 2465,
      "Ġtechnic": 2466,
      "fl": 2467,
      "Ġ131": 2468,
      "orp": 2469,
      "zzanin": 2470,
      "Ġ1080002": 2471,
      "Ġtru": 2472,
      "829": 2473,
      "395": 2474,
      "sw": 2475,
      "quar": 2476,
      "ctob": 2477,
      "Ġktwo": 2478,
      "Ġequival": 2479,
      "plac": 2480,
      "Ġqn": 2481,
      "ention": 2482,
      "emoney": 2483,
      "nnineteen": 2484,
      "ale": 2485,
      "Ġsoftwar": 2486,
      "race": 2487,
      "Ġ157000": 2488,
      "Ġloan": 2489,
      "119": 2490,
      "347": 2491,
      "Ġtwotwo": 2492,
      "1233": 2493,
      "Ġgat": 2494,
      "Ġscenario": 2495,
      "Ġmulti": 2496,
      "arket": 2497,
      "Ġfre": 2498,
      "Ġ127": 2499,
      "Ġcorrect": 2500,
      "sur": 2501,
      "155": 2502,
      "Ġspecul": 2503,
      "ummari": 2504,
      "random": 2505,
      "Ġconstruct": 2506,
      "avi": 2507,
      "oxi": 2508,
      "3850": 2509,
      "Ġncalcul": 2510,
      "Ġtwentyeight": 2511,
      "559": 2512,
      "back": 2513,
      "Ġleav": 2514,
      "Ġbig": 2515,
      "Ġ132998": 2516,
      "Ġnvolatil": 2517,
      "Ġcover": 2518,
      "Ġnposit": 2519,
      "229": 2520,
      "Ġpari": 2521,
      "Ġprotect": 2522,
      "Ġtrue": 2523,
      "47900": 2524,
      "neutral": 2525,
      "449": 2526,
      "orrel": 2527,
      "629": 2528,
      "Ġaccru": 2529,
      "ft": 2530,
      "Ġhous": 2531,
      "sen": 2532,
      "icek": 2533,
      "asicek": 2534,
      "oint": 2535,
      "Ġncomp": 2536,
      "aken": 2537,
      "ph": 2538,
      "Ġproxi": 2539,
      "Ġnpay": 2540,
      "Ġratio": 2541,
      "Ġreview": 2542,
      "388": 2543,
      "375": 2544,
      "Ġsensit": 2545,
      "Ġnecess": 2546,
      "Ġtwoyear": 2547,
      "Ġbrace": 2548,
      "Ġmusiela": 2549,
      "Ġgatarek": 2550,
      "Ġnwhen": 2551,
      "4810": 2552,
      "4850": 2553,
      "3100": 2554,
      "Ġngamma": 2555,
      "Ġnneutral": 2556,
      "Ġannual": 2557,
      "Ġntime": 2558,
      "392": 2559,
      "twoseven": 2560,
      "Ġchaptern": 2561,
      "Ġvice": 2562,
      "Ġ415": 2563,
      "Ġaaa": 2564,
      "Ġspecifi": 2565,
      "Ġextent": 2566,
      "pli": 2567,
      "thirteen": 2568,
      "1045": 2569,
      "1700": 2570,
      "Ġ1330002": 2571,
      "434": 2572,
      "fiftyf": 2573,
      "Ġnmodel": 2574,
      "Ġnfrom": 2575,
      "Ġ52": 2576,
      "Ġoneone": 2577,
      "459": 2578,
      "Ġcir": 2579,
      "725": 2580,
      "45870": 2581,
      "Ġ300": 2582,
      "367": 2583,
      "Ġconvert": 2584,
      "8262": 2585,
      "995": 2586,
      "Ġonetwoseven": 2587,
      "35870": 2588,
      "Ġargument": 2589,
      "6450": 2590,
      "Ġmezzanin": 2591,
      "Ġrevers": 2592,
      "gest": 2593,
      "3275": 2594,
      "Ġbro": 2595,
      "Ġtaken": 2596,
      "Ġdr": 2597,
      "477": 2598,
      "Ġstud": 2599,
      "Ġwi": 2600,
      "factor": 2601,
      "Ġmention": 2602,
      "179": 2603,
      "Ġtail": 2604,
      "Ġpariti": 2605,
      "Ġmn": 2606,
      "1690": 2607,
      "Ġintr": 2608,
      "techn": 2609,
      "Ġnsec": 2610,
      "Ġ385468": 2611,
      "og": 2612,
      "Ġdurat": 2613,
      "389888": 2614,
      "Ġ31": 2615,
      "355": 2616,
      "227": 2617,
      "185": 2618,
      "Ġsug": 2619,
      "Ġoptim": 2620,
      "Ġactual": 2621,
      "349": 2622,
      "447": 2623,
      "Ġ107998": 2624,
      "58668": 2625,
      "vious": 2626,
      "35870389888": 2627,
      "Ġ38546835870389888": 2628,
      "Ġ3854683587038988845870": 2629,
      "682": 2630,
      "ĠÎ¸": 2631,
      "Ġ59": 2632,
      "twont": 2633,
      "1667": 2634,
      "technic": 2635,
      "Ġversa": 2636,
      "Ġwhile": 2637,
      "353": 2638,
      "3390": 2639,
      "481500": 2640,
      "osen": 2641,
      "Ġextens": 2642,
      "Ġoptionn": 2643,
      "3117": 2644,
      "Ġincl": 2645,
      "Ġris": 2646,
      "eet": 2647,
      "Ġcombin": 2648,
      "Ġ51": 2649,
      "466": 2650,
      "4950": 2651,
      "Ġ62": 2652,
      "Ġnan": 2653,
      "Ġnfutur": 2654,
      "Ġimpact": 2655,
      "998": 2656,
      "2200": 2657,
      "Ġgrow": 2658,
      "Ġsingl": 2659,
      "Ġdis": 2660,
      "Ġcdo": 2661,
      "Ġ156": 2662,
      "Ġmatch": 2663,
      "Ġunchang": 2664,
      "Ġtheori": 2665,
      "Ġrang": 2666,
      "Ġjump": 2667,
      "Ġbear": 2668,
      "446": 2669,
      "Ġ1400": 2670,
      "tersen": 2671,
      "Ġ10800057080": 2672,
      "414": 2673,
      "Ġnzero": 2674,
      "Ġbest": 2675,
      "Ġinclud": 2676,
      "Ġcollater": 2677,
      "166": 2678,
      "Ġrecoveri": 2679,
      "Ġdet": 2680,
      "3700": 2681,
      "Ġ118": 2682,
      "Ġ315": 2683,
      "Ġgn": 2684,
      "Ġndiscuss": 2685,
      "5850": 2686,
      "frequ": 2687,
      "Ġweight": 2688,
      "ek": 2689,
      "sid": 2690,
      "6832": 2691,
      "orn": 2692,
      "Ġtk": 2693,
      "rade": 2694,
      "178": 2695,
      "Ġproject": 2696,
      "3910": 2697,
      "ttern": 2698,
      "ubl": 2699,
      "Ġnnegat": 2700,
      "ityn": 2701,
      "terl": 2702,
      "Ġyearsn": 2703,
      "Ġocc": 2704,
      "technicaln": 2705,
      "896": 2706,
      "Ġnprobabl": 2707,
      "Ġfebruari": 2708,
      "Ġslow": 2709,
      "Ġrise": 2710,
      "387": 2711,
      "Ġanalyt": 2712,
      "4240": 2713,
      "Ġ107995567": 2714,
      "134": 2715,
      "508": 2716,
      "775": 2717,
      "fourteen": 2718,
      "4505065": 2719,
      "risi": 2720,
      "fal": 2721,
      "umul": 2722,
      "Ġsuggest": 2723,
      "Ġsumm": 2724,
      "488": 2725,
      "Ġkert": 2726,
      "Ġsystem": 2727,
      "Ġninetyfour": 2728,
      "Ġdetail": 2729,
      "5064": 2730,
      "157": 2731,
      "107": 2732,
      "Ġagainst": 2733,
      "otmanutorontocahulltechnicaln": 2734,
      "Ġseventyseven": 2735,
      "Ġown": 2736,
      "Ġoctob": 2737,
      "Ġthirtysix": 2738,
      "Ġnal": 2739,
      "Ġovernight": 2740,
      "Ġdrawn": 2741,
      "yp": 2742,
      "nre": 2743,
      "urr": 2744,
      "Ġnuse": 2745,
      "pportun": 2746,
      "Ġtreebuild": 2747,
      "5048154510": 2748,
      "Ġ1079955675048154510": 2749,
      "Ġ10799556750481545103500": 2750,
      "ine": 2751,
      "659": 2752,
      "Ġnann": 2753,
      "ork": 2754,
      "Â£": 2755,
      "4285": 2756,
      "467": 2757,
      "827": 2758,
      "ypoth": 2759,
      "778": 2760,
      "727": 2761,
      "4300": 2762,
      "Ġaut": 2763,
      "Ġnmatur": 2764,
      "175": 2765,
      "aption": 2766,
      "ugust": 2767,
      "dl": 2768,
      "407": 2769,
      "Ġru": 2770,
      "sheet": 2771,
      "Ġnumerair": 2772,
      "Ġwiener": 2773,
      "655": 2774,
      "189": 2775,
      "Ġresearch": 2776,
      "Ġsimpl": 2777,
      "Ġfortyninen": 2778,
      "ignor": 2779,
      "Ġ1000": 2780,
      "529": 2781,
      "reek": 2782,
      "Ġrul": 2783,
      "Ġyour": 2784,
      "481546": 2785,
      "309": 2786,
      "4745": 2787,
      "4815306": 2788,
      "3950": 2789,
      "Ġ07": 2790,
      "Ġrubinstein": 2791,
      "692": 2792,
      "Ġflat": 2793,
      "itish": 2794,
      "7200": 2795,
      "106": 2796,
      "ortfolio": 2797,
      "Ġearlier": 2798,
      "Ġbook": 2799,
      "144": 2800,
      "Ġkone": 2801,
      "pper": 2802,
      "Ġoi": 2803,
      "Ġnfinanc": 2804,
      "Ġav": 2805,
      "Ġfi": 2806,
      "Ġpart": 2807,
      "Ġplay": 2808,
      "bs": 2809,
      "Ġsenior": 2810,
      "Ġmonthsn": 2811,
      "Ġslowli": 2812,
      "Ġansw": 2813,
      "mann": 2814,
      "Ġ289": 2815,
      "Ġinfrequ": 2816,
      "Ġjn": 2817,
      "Ġignor": 2818,
      "Ġproport": 2819,
      "ether": 2820,
      "504": 2821,
      "3661": 2822,
      "ia": 2823,
      "irm": 2824,
      "Ġnper": 2825,
      "ypothet": 2826,
      "Ġeveri": 2827,
      "themoney": 2828,
      "Ġproduct": 2829,
      "Ġtwentyat": 2830,
      "Ġnstochast": 2831,
      "ho": 2832,
      "Ã´": 2833,
      "9200": 2834,
      "bt": 2835,
      "Ġnerror": 2836,
      "Ġcme": 2837,
      "Ġrep": 2838,
      "Ġ7199": 2839,
      "Ġwherea": 2840,
      "Ġtax": 2841,
      "Ġopportun": 2842,
      "607": 2843,
      "378": 2844,
      "Ġnotion": 2845,
      "Ġrule": 2846,
      "Ġ382": 2847,
      "Ġsixmonth": 2848,
      "Ġget": 2849,
      "arbitrag": 2850,
      "657": 2851,
      "164832": 2852,
      "Ġcurvaturen": 2853,
      "Ġ10799656832": 2854,
      "481546164832": 2855,
      "Ġ10799656832481546164832": 2856,
      "Ġcrisi": 2857,
      "flect": 2858,
      "Ġfrequenc": 2859,
      "nk": 2860,
      "nsummari": 2861,
      "fore": 2862,
      "atis": 2863,
      "ever": 2864,
      "quid": 2865,
      "Ġeightnc": 2866,
      "Ġconcept": 2867,
      "le": 2868,
      "9670": 2869,
      "3000": 2870,
      "Ġcop": 2871,
      "Ġnco": 2872,
      "tract": 2873,
      "Ġbefore": 2874,
      "Ġsevenseven": 2875,
      "5950": 2876,
      "Ġdesign": 2877,
      "Ġ145000": 2878,
      "Ġletter": 2879,
      "139427": 2880,
      "90748": 2881,
      "262195": 2882,
      "Ġ19090748": 2883,
      "32758262": 2884,
      "26219532758262": 2885,
      "Ġ1909074826219532758262": 2886,
      "Ġcompon": 2887,
      "wor": 2888,
      "dat": 2889,
      "1500": 2890,
      "Ġquan": 2891,
      "Ġ41558668": 2892,
      "31176139": 2893,
      "13942731176139": 2894,
      "Ġ4155866813942731176139": 2895,
      "Ġ102": 2896,
      "35638": 2897,
      "Ġbid": 2898,
      "Ġdifferenti": 2899,
      "5060007": 2900,
      "426": 2901,
      "iltersen": 2902,
      "ersen": 2903,
      "Ġexcept": 2904,
      "less": 2905,
      "Ġstn": 2906,
      "twentytwo": 2907,
      "Ġnecessari": 2908,
      "Ġsa": 2909,
      "Ġwhether": 2910,
      "4700": 2911,
      "Ġagre": 2912,
      "Ġ3598": 2913,
      "196": 2914,
      "Ġnmarket": 2915,
      "oneon": 2916,
      "Ġ122": 2917,
      "4550": 2918,
      "evelop": 2919,
      "Ġnatur": 2920,
      "Ġ280": 2921,
      "1765": 2922,
      "Ġfortyfourn": 2923,
      "xadmonth": 2924,
      "idian": 2925,
      "amsh": 2926,
      "6880": 2927,
      "Ġpattern": 2928,
      "amshidian": 2929,
      "Ġevent": 2930,
      "314": 2931,
      "Ġzer": 2932,
      "Ġnit": 2933,
      "Ġnfour": 2934,
      "Ġdiff": 2935,
      "4890": 2936,
      "icit": 2937,
      "olumn": 2938,
      "twor": 2939,
      "1250": 2940,
      "528": 2941,
      "eta": 2942,
      "57972": 2943,
      "Ġ359865": 2944,
      "481520": 2945,
      "609": 2946,
      "Ġnres": 2947,
      "6950": 2948,
      "Ġswaption": 2949,
      "Ġfortytwo": 2950,
      "Ġ118000": 2951,
      "4029": 2952,
      "nex": 2953,
      "4797236": 2954,
      "428557972": 2955,
      "Ġ3598654797236": 2956,
      "Ġ3598654797236428557972": 2957,
      "pri": 2958,
      "Ġplace": 2959,
      "Ġcopula": 2960,
      "Ġshor": 2961,
      "Ġsur": 2962,
      "8350": 2963,
      "Ġ361690": 2964,
      "1045638": 2965,
      "36611045638": 2966,
      "3563836611045638": 2967,
      "Ġ3616903563836611045638": 2968,
      "Ġ250": 2969,
      "Ġ10800056760": 2970,
      "48153066760": 2971,
      "Ġ1080005676048153066760": 2972,
      "633": 2973,
      "644": 2974,
      "Ġ140000": 2975,
      "ric": 2976,
      "Ġsterl": 2977,
      "iss": 2978,
      "Ġcn": 2979,
      "Ġcat": 2980,
      "Ġgreek": 2981,
      "Ġknow": 2982,
      "Ġ025": 2983,
      "forward": 2984,
      "Ġtwentythre": 2985,
      "440506520": 2986,
      "104190": 2987,
      "Ġ13300057440506520": 2988,
      "Ġ13300057440506520104190": 2989,
      "Ġnannum": 2990,
      "Ġ327": 2991,
      "Ġreflect": 2992,
      "Ġactiv": 2993,
      "Ġdirect": 2994,
      "let": 2995,
      "3550": 2996,
      "Ġsquar": 2997,
      "Ġratesn": 2998,
      "3417": 2999,
      "Ġ720006605752": 3000,
      "679": 3001,
      "jun": 3002,
      "Ġweek": 3003,
      "onderm": 3004,
      "depend": 3005,
      "ondermann": 3006,
      "Ġveg": 3007,
      "8200": 3008,
      "1450": 3009,
      "Ġnbi": 3010,
      "868": 3011,
      "3165": 3012,
      "Ġ09": 3013,
      "Ġexcess": 3014,
      "506550": 3015,
      "47899": 3016,
      "pec": 3017,
      "Ġnch": 3018,
      "Ġ008": 3019,
      "rang": 3020,
      "Ġma": 3021,
      "Ġhypothet": 3022,
      "Ġonetwo": 3023,
      "Ġnexampl": 3024,
      "Ġbritish": 3025,
      "mb": 3026,
      "Ġrandom": 3027,
      "Ġtwentyfourn": 3028,
      "506500": 3029,
      "ntwo": 3030,
      "Ġ49": 3031,
      "Ġ319": 3032,
      "Ġnassum": 3033,
      "952": 3034,
      "Ġ168": 3035,
      "4277": 3036,
      "ecut": 3037,
      "sixt": 3038,
      "Ġexot": 3039,
      "Ġche": 3040,
      "6600": 3041,
      "ffici": 3042,
      "354": 3043,
      "Ġninetyseven": 3044,
      "Ġnineti": 3045,
      "Ġthirtyf": 3046,
      "oot": 3047,
      "Ġvn": 3048,
      "1900": 3049,
      "Ġcumul": 3050,
      "Ġbrown": 3051,
      "npractic": 3052,
      "Ġmaxn": 3053,
      "tenti": 3054,
      "Ġtrial": 3055,
      "raight": 3056,
      "Ġreplac": 3057,
      "Ġlose": 3058,
      "Ġnbond": 3059,
      "Ġnexchang": 3060,
      "Ġfixed": 3061,
      "ral": 3062,
      "8950": 3063,
      "258": 3064,
      "Ġ99": 3065,
      "779": 3066,
      "8700": 3067,
      "Ġinterp": 3068,
      "Ġvega": 3069,
      "3240": 3070,
      "Ġcaus": 3071,
      "Ġmod": 3072,
      "0005": 3073,
      "Ġjamshidian": 3074,
      "Ġhold": 3075,
      "andmann": 3076,
      "Ġbegin": 3077,
      "Ġ4487": 3078,
      "Ġ55": 3079,
      "Ġsign": 3080,
      "Ġ342": 3081,
      "ĠÂ£": 3082,
      "4670": 3083,
      "3065": 3084,
      "cel": 3085,
      "Ġstudi": 3086,
      "Ġsever": 3087,
      "Ġoverth": 3088,
      "bas": 3089,
      "Ġext": 3090,
      "twoon": 3091,
      "Ġthirtythre": 3092,
      "Ġfall": 3093,
      "Ġ321": 3094,
      "Ġ23": 3095,
      "Ġfortyf": 3096,
      "Ġ970": 3097,
      "Ġnyear": 3098,
      "3160": 3099,
      "Ġnthan": 3100,
      "Ġ152": 3101,
      "Ġkey": 3102,
      "4450": 3103,
      "Ġintrod": 3104,
      "atisfi": 3105,
      "Ġlnn": 3106,
      "Ġonefive": 3107,
      "4350": 3108,
      "Ġpotenti": 3109,
      "777": 3110,
      "Ġmaximum": 3111,
      "rat": 3112,
      "406": 3113,
      "07": 3114,
      "Ġaugust": 3115,
      "Ġmotion": 3116,
      "readi": 3117,
      "Ġwwwtwor": 3118,
      "vex": 3119,
      "578": 3120,
      "Ġandersen": 3121,
      "Ġ212": 3122,
      "otmanutorontocahulltechnicalnot": 3123,
      "Ġcolumn": 3124,
      "Ġrein": 3125,
      "527": 3126,
      "Ġmultipl": 3127,
      "910": 3128,
      "3170": 3129,
      "208": 3130,
      "Ġseri": 3131,
      "Ġsondermann": 3132,
      "Ġsandmann": 3133,
      "itch": 3134,
      "tc": 3135,
      "Ġzerozero": 3136,
      "Ġliquid": 3137,
      "most": 3138,
      "992": 3139,
      "Ġ119997": 3140,
      "Ġdebt": 3141,
      "Ġtone": 3142,
      "Ġgrant": 3143,
      "Ġneutr": 3144,
      "Ġni": 3145,
      "Ġsale": 3146,
      "Ġfar": 3147,
      "Ġdevelop": 3148,
      "ash": 3149,
      "47952": 3150,
      "Ġheavi": 3151,
      "Ġgroup": 3152,
      "Ġnportfolio": 3153,
      "Ġconfirm": 3154,
      "4812": 3155,
      "902": 3156,
      "8887": 3157,
      "Ġnsolut": 3158,
      "Ġ63": 3159,
      "inen": 3160,
      "481530": 3161,
      "6850": 3162,
      "506540": 3163,
      "Ġfinit": 3164,
      "805": 3165,
      "205": 3166,
      "ividu": 3167,
      "371": 3168,
      "Ġ01": 3169,
      "Ġmiltersen": 3170,
      "Ġnsu": 3171,
      "Ġdrift": 3172,
      "50399": 3173,
      "454": 3174,
      "481550": 3175,
      "Ġnbetween": 3176,
      "Ġask": 3177,
      "Ġalreadi": 3178,
      "ffect": 3179,
      "496": 3180,
      "Ġnequat": 3181,
      "Ġ34": 3182,
      "Ġload": 3183,
      "lyn": 3184,
      "tead": 3185,
      "Ġsatisfi": 3186,
      "00050600": 3187,
      "ular": 3188,
      "Ġ1330004700050600": 3189,
      "896720": 3190,
      "Ġ1330004700050600896720": 3191,
      "Ġben": 3192,
      "Ġroll": 3193,
      "uropean": 3194,
      "9600": 3195,
      "ecount": 3196,
      "Ġbarrel": 3197,
      "48152": 3198,
      "Ġny": 3199,
      "1240": 3200,
      "Ġnasset": 3201,
      "flow": 3202,
      "odi": 3203,
      "Ġ58": 3204,
      "1000": 3205,
      "Ġ197": 3206,
      "386": 3207,
      "Ġeightyseven": 3208,
      "Ġ14499": 3209,
      "Ġ297": 3210,
      "4245": 3211,
      "Ġsum": 3212,
      "Ġbrownian": 3213,
      "Ġ270": 3214,
      "Ġvasicek": 3215,
      "Ġprevious": 3216,
      "Ġbox": 3217,
      "00000": 3218,
      "6700": 3219,
      "685": 3220,
      "688": 3221,
      "Ġoccur": 3222,
      "set": 3223,
      "vemb": 3224,
      "Ġnovemb": 3225,
      "hold": 3226,
      "626": 3227,
      "270": 3228,
      "Ġfortysix": 3229,
      "cum": 3230,
      "eliv": 3231,
      "thirtyn": 3232,
      "Ġ120000": 3233,
      "7250": 3234,
      "Ġnforward": 3235,
      "put": 3236,
      "Ġttwo": 3237,
      "8714": 3238,
      "Ġnwhere": 3239,
      "inari": 3240,
      "486": 3241,
      "Ġnthere": 3242,
      "na": 3243,
      "Ġeasi": 3244,
      "1917": 3245,
      "Ġfloor": 3246,
      "cumst": 3247,
      "8236": 3248,
      "5450": 3249,
      "erman": 3250,
      "540": 3251,
      "1002": 3252,
      "arrant": 3253,
      "3434": 3254,
      "Ġndefault": 3255,
      "eighteen": 3256,
      "Ġ2000": 3257,
      "Ġexecut": 3258,
      "Ġinstead": 3259,
      "step": 3260,
      "âĢĶ": 3261,
      "Ġnme": 3262,
      "vari": 3263,
      "156": 3264,
      "80353": 3265,
      "Ġnwould": 3266,
      "elve": 3267,
      "Ġ720": 3268,
      "Ġnha": 3269,
      "rix": 3270,
      "ometr": 3271,
      "Ġaccrual": 3272,
      "Ġsch": 3273,
      "Ġdid": 3274,
      "9974": 3275,
      "336": 3276,
      "Ġchosen": 3277,
      "Ġ9699": 3278,
      "ithm": 3279,
      "eriod": 3280,
      "ross": 3281,
      "alf": 3282,
      "Ġmodeln": 3283,
      "Ġfind": 3284,
      "eston": 3285,
      "Ġoverthecount": 3286,
      "Ġ114": 3287,
      "Ġseventi": 3288,
      "Ġ115000": 3289,
      "Ġdiffic": 3290,
      "Ġenti": 3291,
      "Ġagenc": 3292,
      "Ġopen": 3293,
      "Ġconvent": 3294,
      "urod": 3295,
      "Ġwant": 3296,
      "9936": 3297,
      "ingal": 3298,
      "Ġfortytwon": 3299,
      "Ġ44319": 3300,
      "Ġtwentyatwo": 3301,
      "urodollar": 3302,
      "Ġ443191660535504001670535": 3303,
      "kew": 3304,
      "ethree": 3305,
      "Ġlend": 3306,
      "Ġ299": 3307,
      "Ġ329": 3308,
      "697": 3309,
      "fac": 3310,
      "Ġ320": 3311,
      "Ġnday": 3312,
      "tterm": 3313,
      "Ġtest": 3314,
      "Ġninetytwon": 3315,
      "nshort": 3316,
      "Ġgrowth": 3317,
      "cern": 3318,
      "eur": 3319,
      "xn": 3320,
      "Ġ112": 3321,
      "6520": 3322,
      "vern": 3323,
      "nfif": 3324,
      "erta": 3325,
      "inti": 3326,
      "ertainti": 3327,
      "uar": 3328,
      "ĠitÃ´": 3329,
      "ker": 3330,
      "Ġ110": 3331,
      "Ġdu": 3332,
      "Ġnwe": 3333,
      "Ġensur": 3334,
      "group": 3335,
      "Ġ9700034862": 3336,
      "Ġaccur": 3337,
      "raddl": 3338,
      "abil": 3339,
      "Ġavail": 3340,
      "Ġjanuari": 3341,
      "earn": 3342,
      "posit": 3343,
      "Ġcentral": 3344,
      "oe": 3345,
      "1199": 3346,
      "875": 3347,
      "594": 3348,
      "50652": 3349,
      "oh": 3350,
      "ĠâĪ": 3351,
      "Ġ438": 3352,
      "Ġszerod": 3353,
      "Ġtrinomi": 3354,
      "Ġanswer": 3355,
      "6240": 3356,
      "njun": 3357,
      "6800": 3358,
      "Ġ14300": 3359,
      "Ġanalyst": 3360,
      "Ġ252": 3361,
      "4740": 3362,
      "Ġmid": 3363,
      "344": 3364,
      "9850": 3365,
      "033": 3366,
      "Ġ57": 3367,
      "standard": 3368,
      "705": 3369,
      "9950": 3370,
      "Ġnsp": 3371,
      "01": 3372,
      "Ġ155": 3373,
      "275": 3374,
      "Ġvi": 3375,
      "Ġfiftytwo": 3376,
      "Ġxn": 3377,
      "Ġbetter": 3378,
      "Ġnderiv": 3379,
      "world": 3380,
      "Ġnchang": 3381,
      "Ġ277": 3382,
      "Ġbasel": 3383,
      "Ġsubs": 3384,
      "Ġtop": 3385,
      "Ġskew": 3386,
      "Ġsi": 3387,
      "Ġ316": 3388,
      "1400": 3389,
      "617": 3390,
      "Ġ330": 3391,
      "Ġounc": 3392,
      "10000": 3393,
      "Ġ67": 3394,
      "Ġtwentyfiven": 3395,
      "6665": 3396,
      "Ġconveni": 3397,
      "636": 3398,
      "kel": 3399,
      "898": 3400,
      "Ġriskn": 3401,
      "Ġccps": 3402,
      "5700": 3403,
      "Ġeven": 3404,
      "Ġnshow": 3405,
      "Ġ225": 3406,
      "Ġ04": 3407,
      "ret": 3408,
      "ticip": 3409,
      "Ġ220": 3410,
      "3979": 3411,
      "ingr": 3412,
      "Ġsummar": 3413,
      "pm": 3414,
      "858": 3415,
      "Ġcarri": 3416,
      "Ġnconsid": 3417,
      "131": 3418,
      "twelv": 3419,
      "114": 3420,
      "Ġconvex": 3421,
      "667": 3422,
      "Ġperform": 3423,
      "Ġthirtyeight": 3424,
      "6920": 3425,
      "47900045862": 3426,
      "eometr": 3427,
      "Ġasn": 3428,
      "Ġqtwentytwo": 3429,
      "49750": 3430,
      "46136": 3431,
      "3895": 3432,
      "Ġlongterm": 3433,
      "550": 3434,
      "5200": 3435,
      "Ġqtwenti": 3436,
      "nw": 3437,
      "rid": 3438,
      "Ġpop": 3439,
      "Ġmodifi": 3440,
      "nseven": 3441,
      "tingal": 3442,
      "Ġdone": 3443,
      "Ġ260": 3444,
      "Ġmartingal": 3445,
      "itiesn": 3446,
      "Ġqtwotwo": 3447,
      "Ġoutstand": 3448,
      "Ġciti": 3449,
      "Ġrf": 3450,
      "Ġ259": 3451,
      "8600": 3452,
      "Ġqtwoon": 3453,
      "Ġshortfal": 3454,
      "Ġappropri": 3455,
      "Ġ3900": 3456,
      "46280353": 3457,
      "8253390": 3458,
      "Ġ3828236": 3459,
      "825339046280353": 3460,
      "Ġ3828236825339046280353": 3461,
      "Ġ137": 3462,
      "ick": 3463,
      "3486247900045862": 3464,
      "Ġ141": 3465,
      "Ġ4146": 3466,
      "corp": 3467,
      "reen": 3468,
      "Ġlie": 3469,
      "Ġbroker": 3470,
      "Ġti": 3471,
      "ectr": 3472,
      "Ġleast": 3473,
      "Ġallow": 3474,
      "Ġpopular": 3475,
      "gan": 3476,
      "Ġ282": 3477,
      "Ġbeh": 3478,
      "ninterest": 3479,
      "Ġjunnnineteen": 3480,
      "Ġjunnnineteenn": 3481,
      "1170": 3482,
      "nfurther": 3483,
      "560": 3484,
      "go": 3485,
      "Ġcli": 3486,
      "Ġ10800062": 3487,
      "ranc": 3488,
      "Ġseventyeight": 3489,
      "Ġnstrike": 3490,
      "Ġnexpect": 3491,
      "Ã©": 3492,
      "Ġintern": 3493,
      "35071": 3494,
      "Ġ2021": 3495,
      "Ġmatrix": 3496,
      "Ġwarrant": 3497,
      "3350": 3498,
      "Ġ27385": 3499,
      "Ġ102000": 3500,
      "960": 3501,
      "Ġ13300054550": 3502,
      "466990": 3503,
      "46136466990": 3504,
      "Ġ1330005455046136466990": 3505,
      "616": 3506,
      "eld": 3507,
      "Ġhedger": 3508,
      "ring": 3509,
      "Ġpred": 3510,
      "Ġpubl": 3511,
      "npun": 3512,
      "npdn": 3513,
      "till": 3514,
      "Ġ65": 3515,
      "Ġ187": 3516,
      "Ġrole": 3517,
      "Ġcircumst": 3518,
      "wma": 3519,
      "Ġ53": 3520,
      "Ġtwentyonen": 3521,
      "Ġbbbcorp": 3522,
      "42773895": 3523,
      "3507142773895": 3524,
      "Ġ273853507142773895": 3525,
      "Ġ2738535071427738958714": 3526,
      "Ġntwon": 3527,
      "Ġthreeyear": 3528,
      "885": 3529,
      "Ġseventyfour": 3530,
      "creas": 3531,
      "non": 3532,
      "Ġsolut": 3533,
      "7240": 3534,
      "Ġexcel": 3535,
      "Ġrnpun": 3536,
      "Ġewma": 3537,
      "1740": 3538,
      "143417": 3539,
      "Ġnprincip": 3540,
      "43949750": 3541,
      "whit": 3542,
      "3165143417": 3543,
      "30653434": 3544,
      "88874890": 3545,
      "Ġ39003165143417": 3546,
      "Ġ414630653434": 3547,
      "4394975090": 3548,
      "Ġ3900316514341788874890": 3549,
      "Ġ4146306534344394975090": 3550,
      "6350": 3551,
      "Ġaud": 3552,
      "1020": 3553,
      "Ġworksheet": 3554,
      "Ġdifficult": 3555,
      "Ġ970003486211": 3556,
      "point": 3557,
      "Ġ336": 3558,
      "154": 3559,
      "Ġstay": 3560,
      "wis": 3561,
      "Ġattract": 3562,
      "4400": 3563,
      "Ġ006": 3564,
      "pmnpdn": 3565,
      "Ġlearn": 3566,
      "Ġncan": 3567,
      "Ġtwont": 3568,
      "Ġ335": 3569,
      "Ġexist": 3570,
      "Ġ1330006665": 3571,
      "80001233": 3572,
      "Ġncor": 3573,
      "61580001233": 3574,
      "Ġrnpunpmnpdn": 3575,
      "Ġ133000666561580001233": 3576,
      "Ġ13300066656158000123398": 3577,
      "Ġ191": 3578,
      "Ġoffer": 3579,
      "979": 3580,
      "Ġconcern": 3581,
      "Ġ79": 3582,
      "Ġncall": 3583,
      "Ġlookback": 3584,
      "ezero": 3585,
      "Ġbeta": 3586,
      "Ġ241": 3587,
      "708": 3588,
      "Ġrough": 3589,
      "113": 3590,
      "Ġonce": 3591,
      "Ġ296": 3592,
      "1040": 3593,
      "Ġ08": 3594,
      "Ġncurr": 3595,
      "Ġuntil": 3596,
      "Ġ255": 3597,
      "Ġchanc": 3598,
      "02": 3599,
      "forf": 3600,
      "Ġassetn": 3601,
      "opt": 3602,
      "772": 3603,
      "3554": 3604,
      "9742": 3605,
      "ior": 3606,
      "194": 3607,
      "Ġ022": 3608,
      "endar": 3609,
      "506530": 3610,
      "ros": 3611,
      "Ġ98": 3612,
      "icros": 3613,
      "Ġstat": 3614,
      "350045862": 3615,
      "Ġ970003486211350045862": 3616,
      "icrosof": 3617,
      "Ġfiv": 3618,
      "eventy": 3619,
      "8920": 3620,
      "Ġcitigroup": 3621,
      "twentysix": 3622,
      "Ġyearn": 3623,
      "fortyfour": 3624,
      "Ġoffset": 3625,
      "08": 3626,
      "Ġturn": 3627,
      "urth": 3628,
      "januari": 3629,
      "Ġ240": 3630,
      "996": 3631,
      "46029": 3632,
      "ought": 3633,
      "uaran": 3634,
      "inter": 3635,
      "enot": 3636,
      "4683": 3637,
      "3400": 3638,
      "Ġrealworld": 3639,
      "366": 3640,
      "Ġrecent": 3641,
      "Ġ005": 3642,
      "Ġpost": 3643,
      "tyl": 3644,
      "Ġcorn": 3645,
      "Ġboundari": 3646,
      "Ġert": 3647,
      "4250": 3648,
      "Ġbuyer": 3649,
      "Ġcaplet": 3650,
      "Ġuncertainti": 3651,
      "Ġbull": 3652,
      "Ġhand": 3653,
      "Ġalong": 3654,
      "Ġtradit": 3655,
      "thirtytwo": 3656,
      "Ġlemm": 3657,
      "Ġ4625003486247900045862": 3658,
      "9670575": 3659,
      "Ġ182": 3660,
      "111": 3661,
      "Ġthereforen": 3662,
      "3990": 3663,
      "Ġpe": 3664,
      "Ġtwentytwon": 3665,
      "1918": 3666,
      "Ġ01667": 3667,
      "Ġninetythre": 3668,
      "Ġgovern": 3669,
      "Ġarbitrageur": 3670,
      "5920": 3671,
      "Ġneuropean": 3672,
      "Ġ2022": 3673,
      "Ġnse": 3674,
      "Ġindividu": 3675,
      "teight": 3676,
      "Ġ125": 3677,
      "Ġ359": 3678,
      "46427": 3679,
      "3654029": 3680,
      "11246029": 3681,
      "17653654029": 3682,
      "Ġ16811246029": 3683,
      "Ġ1681124602917653654029": 3684,
      "Ġhalf": 3685,
      "Ġ290": 3686,
      "6050": 3687,
      "Ġnover": 3688,
      "Ġndistribut": 3689,
      "7950": 3690,
      "Ġnvari": 3691,
      "Ġconfid": 3692,
      "Ġneutral": 3693,
      "oret": 3694,
      "Ġwinter": 3695,
      "Ġ325": 3696,
      "Ġncom": 3697,
      "ationsn": 3698,
      "Ġnunder": 3699,
      "Ġstill": 3700,
      "3250": 3701,
      "Ġani": 3702,
      "Ġ116500": 3703,
      "Ġ107999": 3704,
      "Ġmark": 3705,
      "Ġspring": 3706,
      "431": 3707,
      "ase": 3708,
      "Ġstraddl": 3709,
      "Ġbyn": 3710,
      "9700": 3711,
      "eighty": 3712,
      "Ġcattl": 3713,
      "Ġnun": 3714,
      "Ġdistrib": 3715,
      "Ġ222": 3716,
      "7260": 3717,
      "Ġnother": 3718,
      "Ġzeronon": 3719,
      "Ġlikel": 3720,
      "6116": 3721,
      "Ġtwentythreen": 3722,
      "Ġninvest": 3723,
      "298": 3724,
      "Ġthirtyon": 3725,
      "Ġprecis": 3726,
      "Ġncompani": 3727,
      "Ġ272": 3728,
      "Ġ217": 3729,
      "Ġrev": 3730,
      "ninety": 3731,
      "Ġ144997": 3732,
      "Ġnim": 3733,
      "3900": 3734,
      "4650": 3735,
      "Ġnbec": 3736,
      "Ġ132997": 3737,
      "7700": 3738,
      "rap": 3739,
      "6740": 3740,
      "4504815": 3741,
      "Ġwwwtworotmanutorontocahulltechnicalnot": 3742,
      "840": 3743,
      "Ġmem": 3744,
      "2240": 3745,
      "ons": 3746,
      "1648445": 3747,
      "Ġho": 3748,
      "592": 3749,
      "2450": 3750,
      "6670": 3751,
      "Ġxi": 3752,
      "Ġ400": 3753,
      "Ġnsim": 3754,
      "Ġ312400": 3755,
      "Ġshortterm": 3756,
      "Ġ90": 3757,
      "Ġ242": 3758,
      "879": 3759,
      "Ġnsell": 3760,
      "uarante": 3761,
      "eed": 3762,
      "ergi": 3763,
      "Ġcra": 3764,
      "Ġ116": 3765,
      "Ġ388": 3766,
      "Ġnsome": 3767,
      "Ġproceed": 3768,
      "Ġthirtyseven": 3769,
      "Ġenergi": 3770,
      "Ġeightysix": 3771,
      "Ġnhave": 3772,
      "Ġ10800057": 3773,
      "3502": 3774,
      "Ġseventysix": 3775,
      "ĠÏ": 3776,
      "3580": 3777,
      "Ġfortyeight": 3778,
      "504000": 3779,
      "opl": 3780,
      "Ġvs": 3781,
      "124": 3782,
      "eder": 3783,
      "Ġnthree": 3784,
      "Ġsubject": 3785,
      "fli": 3786,
      "Ġ333": 3787,
      "6554": 3788,
      "tionn": 3789,
      "Ġ43979": 3790,
      "Ġriskless": 3791,
      "279": 3792,
      "Ġ0000": 3793,
      "Ġrepres": 3794,
      "wap": 3795,
      "Ġdivid": 3796,
      "Ġonest": 3797,
      "Ġcalendar": 3798,
      "Ġunderstand": 3799,
      "Ġannumn": 3800,
      "nstock": 3801,
      "Ġonestraight": 3802,
      "fect": 3803,
      "ibr": 3804,
      "Ġ130": 3805,
      "Ġnbu": 3806,
      "nse": 3807,
      "Ġwritte": 3808,
      "396": 3809,
      "4610": 3810,
      "endix": 3811,
      "Ġbillion": 3812,
      "Ġdenot": 3813,
      "908": 3814,
      "292": 3815,
      "Ġ337": 3816,
      "704": 3817,
      "Ġdzn": 3818,
      "Ġlin": 3819,
      "424546427": 3820,
      "4683424546427": 3821,
      "Ġ439794683424546427": 3822,
      "Ġ4397946834245464279742": 3823,
      "980": 3824,
      "rup": 3825,
      "101": 3826,
      "Ġcompl": 3827,
      "Ġupper": 3828,
      "ton": 3829,
      "Ġentiti": 3830,
      "Ġ339": 3831,
      "1800": 3832,
      "Ġauthor": 3833,
      "Ġthus": 3834,
      "Ġfranc": 3835,
      "Ġmbs": 3836,
      "ict": 3837,
      "3020": 3838,
      "4960": 3839,
      "apest": 3840,
      "Ġalmost": 3841,
      "Ġ7200": 3842,
      "Ġ001": 3843,
      "Ġaddit": 3844,
      "ans": 3845,
      "Ġ362": 3846,
      "Ġargu": 3847,
      "Ġ127000": 3848,
      "Ġszerodthreen": 3849,
      "Ġinform": 3850,
      "Ġ105": 3851,
      "4760": 3852,
      "Ġninetyeight": 3853,
      "Ġextend": 3854,
      "3420": 3855,
      "1920": 3856,
      "verg": 3857,
      "berg": 3858,
      "09999": 3859,
      "icrosoft": 3860,
      "iho": 3861,
      "2850": 3862,
      "Ġ1330015": 3863,
      "ihood": 3864,
      "Ġ13300057080": 3865,
      "Ġezero": 3866,
      "1550": 3867,
      "456": 3868,
      "Ġgeometr": 3869,
      "Ġnperiod": 3870,
      "eighteight": 3871,
      "712": 3872,
      "Ġ66": 3873,
      "Ġ5000": 3874,
      "00003": 3875,
      "Ġprior": 3876,
      "3230": 3877,
      "895": 3878,
      "Ġ065": 3879,
      "Ġstatement": 3880,
      "Ġ248": 3881,
      "Ġ262": 3882,
      "uli": 3883,
      "6400": 3884,
      "Ġprepay": 3885,
      "Ġntranch": 3886,
      "Ġdistribu": 3887,
      "roxim": 3888,
      "Ġ291": 3889,
      "igin": 3890,
      "Ġseventyfiven": 3891,
      "6312": 3892,
      "Ġnapproxim": 3893,
      "Ġ310": 3894,
      "Ġreport": 3895,
      "Ġfloatingr": 3896,
      "Ġelectr": 3897,
      "ced": 3898,
      "pn": 3899,
      "Ġsv": 3900,
      "Ġ338": 3901,
      "Ġ265": 3902,
      "4920": 3903,
      "Ġdeposit": 3904,
      "Ġthirtyfour": 3905,
      "580": 3906,
      "andout": 3907,
      "Ġndure": 3908,
      "Ġmillionn": 3909,
      "ront": 3910,
      "Ġrk": 3911,
      "Ġntabl": 3912,
      "Ġntrade": 3913,
      "542": 3914,
      "Ġ292": 3915,
      "6055": 3916,
      "356": 3917,
      "8750": 3918,
      "266": 3919,
      "bri": 3920,
      "mod": 3921,
      "5740": 3922,
      "ilibri": 3923,
      "Ġnpayment": 3924,
      "ilibrium": 3925,
      "Ġ350": 3926,
      "4816": 3927,
      "Ġupdat": 3928,
      "Ġnalway": 3929,
      "Ġintroduc": 3930,
      "efit": 3931,
      "Ġnind": 3932,
      "Ġ012": 3933,
      "though": 3934,
      "126": 3935,
      "Ġriskxad": 3936,
      "Ġnexp": 3937,
      "Ġlemma": 3938,
      "3770": 3939,
      "kke": 3940,
      "alanc": 3941,
      "Ġmerton": 3942,
      "acorp": 3943,
      "rupt": 3944,
      "kkei": 3945,
      "Ġguarante": 3946,
      "3740": 3947,
      "Ġ13300056": 3948,
      "Ġfortyfiven": 3949,
      "Ġabs": 3950,
      "Ġsurfac": 3951,
      "6170": 3952,
      "Ġninetyon": 3953,
      "411": 3954,
      "Ġnint": 3955,
      "226": 3956,
      "4026": 3957,
      "Ġnappro": 3958,
      "Ġnrespect": 3959,
      "oci": 3960,
      "Ġ455": 3961,
      "4230": 3962,
      "estim": 3963,
      "278": 3964,
      "Ġ287400": 3965,
      "Ġ150": 3966,
      "Ġ174": 3967,
      "nsh": 3968,
      "Ġnnum": 3969,
      "bp": 3970,
      "ey": 3971,
      "Ġ324": 3972,
      "1687": 3973,
      "4910": 3974,
      "873": 3975,
      "Ġ06": 3976,
      "seventy": 3977,
      "Ġindepend": 3978,
      "Ġ238": 3979,
      "Ġtoo": 3980,
      "6222": 3981,
      "326": 3982,
      "Ġnoarbitrag": 3983,
      "Ġenabl": 3984,
      "1990": 3985,
      "Ġthirtyn": 3986,
      "Ġnriskfre": 3987,
      "4265": 3988,
      "tterfli": 3989,
      "878": 3990,
      "Ġxv": 3991,
      "Ġnsecur": 3992,
      "Ġnli": 3993,
      "Ġ210": 3994,
      "6937": 3995,
      "Ġ720005": 3996,
      "76800": 3997,
      "nsept": 3998,
      "Ġxt": 3999,
      "Ġapr": 4000,
      "Ġandreas": 4001,
      "Ġ269": 4002,
      "Ġ448": 4003,
      "Ġ613": 4004,
      "Ġfiftyeight": 4005,
      "Ġnonstandard": 4006,
      "Ġandreasen": 4007,
      "Ġnad": 4008,
      "Ġreplic": 4009,
      "556": 4010,
      "2867": 4011,
      "4520": 4012,
      "1300": 4013,
      "ceed": 4014,
      "Ġsk": 4015,
      "Ġfut": 4016,
      "Ġfiftyon": 4017,
      "Ġhandl": 4018,
      "780": 4019,
      "897": 4020,
      "Ġalthough": 4021,
      "Ġui": 4022,
      "lope": 4023,
      "iversifi": 4024,
      "nwh": 4025,
      "Ġ360": 4026,
      "3330": 4027,
      "4210": 4028,
      "esc": 4029,
      "Ġconvers": 4030,
      "Ġ78": 4031,
      "nthe": 4032,
      "Ġ229": 4033,
      "9990": 4034,
      "Ġtwentysixn": 4035,
      "3249": 4036,
      "1362": 4037,
      "Ġ13199": 4038,
      "Ġheston": 4039,
      "Ġonefactor": 4040,
      "4440": 4041,
      "978": 4042,
      "eren": 4043,
      "Ġ317": 4044,
      "Ġndown": 4045,
      "Ġcheapest": 4046,
      "Ġapril": 4047,
      "820": 4048,
      "Ġtheoret": 4049,
      "Ġlive": 4050,
      "Ġeurodollar": 4051,
      "play": 4052,
      "09997": 4053,
      "987": 4054,
      "bn": 4055,
      "elyn": 4056,
      "Ġwhose": 4057,
      "3150": 4058,
      "Ġcontractn": 4059,
      "Ġswapn": 4060,
      "Ġ74": 4061,
      "Ġsecurit": 4062,
      "etrad": 4063,
      "481549": 4064,
      "ncon": 4065,
      "Ġfound": 4066,
      "1050": 4067,
      "Ġbankrupt": 4068,
      "Ġfeatur": 4069,
      "Ġoper": 4070,
      "48099": 4071,
      "artz": 4072,
      "prim": 4073,
      "Ġlock": 4074,
      "808": 4075,
      "6791": 4076,
      "Ġ107997": 4077,
      "eman": 4078,
      "Ġfiftyseven": 4079,
      "Ġ825": 4080,
      "Ġninetysix": 4081,
      "Ġdisplay": 4082,
      "Ġnup": 4083,
      "Ġbill": 4084,
      "Ġ318": 4085,
      "5250": 4086,
      "4148": 4087,
      "Ġbasic": 4088,
      "Ġsixtysix": 4089,
      "pectiv": 4090,
      "Ġfixedr": 4091,
      "dd": 4092,
      "Ġ286": 4093,
      "1046": 4094,
      "Ġweather": 4095,
      "Ġsynth": 4096,
      "Ġnmore": 4097,
      "Ġxone": 4098,
      "Ġsynthet": 4099,
      "Ġla": 4100,
      "Ġ266": 4101,
      "364": 4102,
      "ba": 4103,
      "Ġfu": 4104,
      "icag": 4105,
      "Ġbenefit": 4106,
      "icago": 4107,
      "724": 4108,
      "Ġlost": 4109,
      "Ġfra": 4110,
      "4817": 4111,
      "1520": 4112,
      "Ġoneday": 4113,
      "aper": 4114,
      "905": 4115,
      "Ġncl": 4116,
      "Ġ478": 4117,
      "Ġtem": 4118,
      "Ġtreasur": 4119,
      "2250": 4120,
      "5230": 4121,
      "Ġseen": 4122,
      "Ġorigin": 4123,
      "hman": 4124,
      "not": 4125,
      "Ġbinari": 4126,
      "Ġ267": 4127,
      "Ġexceed": 4128,
      "Ġdecid": 4129,
      "248": 4130,
      "dividend": 4131,
      "48450": 4132,
      "Ġperfect": 4133,
      "sian": 4134,
      "2249": 4135,
      "1370": 4136,
      "867": 4137,
      "Ġanticip": 4138,
      "5584": 4139,
      "Ġgoe": 4140,
      "Ġnchapter": 4141,
      "Ġaffect": 4142,
      "Ġsil": 4143,
      "urchas": 4144,
      "4500": 4145,
      "Ġ730": 4146,
      "Ġnpar": 4147,
      "Ġhav": 4148,
      "Ġfortyeightn": 4149,
      "Ġleft": 4150,
      "Ġtransform": 4151,
      "Ġnikkei": 4152,
      "297": 4153,
      "Ġ10000": 4154,
      "Ġ1415": 4155,
      "Ġfourth": 4156,
      "rip": 4157,
      "Ġgivesn": 4158,
      "mith": 4159,
      "Ġandn": 4160,
      "ific": 4161,
      "thi": 4162,
      "3830": 4163,
      "4948": 4164,
      "apan": 4165,
      "8240": 4166,
      "Ġtimen": 4167,
      "Ġassoci": 4168,
      "Ġaction": 4169,
      "Ġ43": 4170,
      "Ġcovari": 4171,
      "Ġotherwis": 4172,
      "known": 4173,
      "Ġminus": 4174,
      "ken": 4175,
      "Ġaon": 4176,
      "Ġtwelve": 4177,
      "Ġnout": 4178,
      "Ġimplicit": 4179,
      "Ġngiven": 4180,
      "730": 4181,
      "xx": 4182,
      "Ġheld": 4183,
      "raxx": 4184,
      "Ġitraxx": 4185,
      "Ġ10800056": 4186,
      "4365": 4187,
      "48149": 4188,
      "Ġslope": 4189,
      "Ġ215": 4190,
      "twontwon": 4191,
      "qn": 4192,
      "qt": 4193,
      "Ġsl": 4194,
      "704815": 4195,
      "Ġ307": 4196,
      "Ġ309": 4197,
      "Ġconsider": 4198,
      "Ġnnode": 4199,
      "loss": 4200,
      "Ġlit": 4201,
      "Ġ138": 4202,
      "Ġ298": 4203,
      "826": 4204,
      "Ġ28740": 4205,
      "280": 4206,
      "3660": 4207,
      "186": 4208,
      "aussian": 4209,
      "ĠâĪĻ": 4210,
      "Ġnif": 4211,
      "4750": 4212,
      "Ġthousandn": 4213,
      "6820": 4214,
      "Ġ644": 4215,
      "Ġnhow": 4216,
      "Ġncontinu": 4217,
      "Ġquantit": 4218,
      "goti": 4219,
      "709": 4220,
      "Ġ305": 4221,
      "npro": 4222,
      "15287": 4223,
      "nfifteen": 4224,
      "Ġmain": 4225,
      "Ġequilibrium": 4226,
      "66147": 4227,
      "Ġgenerat": 4228,
      "nli": 4229,
      "Ġwhole": 4230,
      "Ġyn": 4231,
      "Ġ13300062": 4232,
      "Ġinteg": 4233,
      "Ġpayer": 4234,
      "follow": 4235,
      "50649": 4236,
      "Ġeurop": 4237,
      "Ġ2007": 4238,
      "Ġnfive": 4239,
      "Ġfoot": 4240,
      "Ġ365": 4241,
      "1012": 4242,
      "4410": 4243,
      "50655": 4244,
      "9240": 4245,
      "136350": 4246,
      "Ġclient": 4247,
      "Ġlikelihood": 4248,
      "Ġ341": 4249,
      "384": 4250,
      "Ġbutterfli": 4251,
      "Ġtermin": 4252,
      "Ġbankruptci": 4253,
      "oxad": 4254,
      "Ġofn": 4255,
      "Ġclass": 4256,
      "none": 4257,
      "Ġpaper": 4258,
      "1650": 4259,
      "5240": 4260,
      "Ġarea": 4261,
      "Ġ202": 4262,
      "Ġmember": 4263,
      "6029": 4264,
      "5600": 4265,
      "Ġnbuy": 4266,
      "Ġ95": 4267,
      "Ġide": 4268,
      "Ġ258": 4269,
      "Ġgbp": 4270,
      "11146": 4271,
      "Ġ126": 4272,
      "506024": 4273,
      "wartz": 4274,
      "Ġ03": 4275,
      "Ġshift": 4276,
      "4140": 4277,
      "Ġminimum": 4278,
      "Ġwriter": 4279,
      "Ġ15699": 4280,
      "ntn": 4281,
      "Ġvl": 4282,
      "Ġri": 4283,
      "892": 4284,
      "8740": 4285,
      "Ġnegoti": 4286,
      "etrole": 4287,
      "sixteen": 4288,
      "Ġii": 4289,
      "etroleum": 4290,
      "Ġwish": 4291,
      "Ġ332": 4292,
      "Ġ288": 4293,
      "4519": 4294,
      "Ġgam": 4295,
      "Ġ108000570": 4296,
      "Ġft": 4297,
      "Ġ235": 4298,
      "Ġwheren": 4299,
      "Ġ132999": 4300,
      "Ġexpans": 4301,
      "Ġeightyeight": 4302,
      "Ġcb": 4303,
      "Ġ218": 4304,
      "69136350": 4305,
      "46011146": 4306,
      "Ġemb": 4307,
      "Ġcountri": 4308,
      "Ġcrash": 4309,
      "Ġ45569136350": 4310,
      "46011146350": 4311,
      "Ġ4556913635046011146350": 4312,
      "097": 4313,
      "Ġ123": 4314,
      "6430": 4315,
      "506552": 4316,
      "Ġaris": 4317,
      "110500": 4318,
      "financi": 4319,
      "Ġsubstitut": 4320,
      "Ġsilver": 4321,
      "Ġ81": 4322,
      "204": 4323,
      "206": 4324,
      "8287": 4325,
      "576": 4326,
      "Ġ54": 4327,
      "Ġxb": 4328,
      "Ġexplicit": 4329,
      "Ġaaacorp": 4330,
      "Ġntherefor": 4331,
      "Ġnever": 4332,
      "Ġ180": 4333,
      "Ġtwosix": 4334,
      "4900": 4335,
      "ese": 4336,
      "2600": 4337,
      "Ġexperi": 4338,
      "Ġmet": 4339,
      "Ġrest": 4340,
      "3890": 4341,
      "34368": 4342,
      "143000": 4343,
      "291660535504001670535": 4344,
      "Ġ438291660535504001670535": 4345,
      "Ġnlo": 4346,
      "Ġmicrosoft": 4347,
      "Ġ233": 4348,
      "Ġonefour": 4349,
      "6048": 4350,
      "38492": 4351,
      "476": 4352,
      "Ġnincreas": 4353,
      "Ġpropos": 4354,
      "Ġ3766147": 4355,
      "Ġ73": 4356,
      "63271": 4357,
      "Ġboard": 4358,
      "Ġinterpol": 4359,
      "119938492": 4360,
      "679199": 4361,
      "Ġ3766147119938492": 4362,
      "Ġ3766147119938492679199": 4363,
      "ger": 4364,
      "eliveri": 4365,
      "Ġlinear": 4366,
      "Ġ120": 4367,
      "Ġ198": 4368,
      "Ġbought": 4369,
      "Ġyork": 4370,
      "Ġ41": 4371,
      "Ġorn": 4372,
      "Ġncorrel": 4373,
      "Ġconsum": 4374,
      "635952": 4375,
      "Ġ824": 4376,
      "Ġzeront": 4377,
      "Ġsignific": 4378,
      "1645": 4379,
      "Ġnfactor": 4380,
      "Ġ12000": 4381,
      "570": 4382,
      "Ġabl": 4383,
      "Ġinput": 4384,
      "4834": 4385,
      "Ġoneon": 4386,
      "ourc": 4387,
      "78873": 4388,
      "49978873": 4389,
      "1156312": 4390,
      "35834368": 4391,
      "379354": 4392,
      "Ġ2892867": 4393,
      "Ġ31963271": 4394,
      "Ġnapproach": 4395,
      "115631249978873": 4396,
      "35834368379354": 4397,
      "Ġ2892867115631249978873": 4398,
      "Ġ3196327135834368379354": 4399,
      "295": 4400,
      "everag": 4401,
      "lor": 4402,
      "Ġpetroleum": 4403,
      "Ġstag": 4404,
      "aylor": 4405,
      "Ġatthemoney": 4406,
      "50000": 4407,
      "Ġseventythre": 4408,
      "ins": 4409,
      "509": 4410,
      "Ġ257": 4411,
      "3022": 4412,
      "1820": 4413,
      "970": 4414,
      "ote": 4415,
      "Ġ285": 4416,
      "Ġnindex": 4417,
      "Ġ009": 4418,
      "Ġnreceiv": 4419,
      "Ġ14500": 4420,
      "Ġreinvest": 4421,
      "Ġriskxadfre": 4422,
      "646": 4423,
      "pro": 4424,
      "Ġut": 4425,
      "Ġ69": 4426,
      "Ġ192": 4427,
      "3912": 4428,
      "nfurth": 4429,
      "4995": 4430,
      "Ġbarcl": 4431,
      "Ġpublish": 4432,
      "Ġbarclay": 4433,
      "830": 4434,
      "Ġthing": 4435,
      "Ġ121": 4436,
      "essn": 4437,
      "8250": 4438,
      "Ġ10800046": 4439,
      "rop": 4440,
      "7600": 4441,
      "Ġnexercis": 4442,
      "avior": 4443,
      "Ãº": 4444,
      "ĠÃº": 4445,
      "Ġcare": 4446,
      "Ġhn": 4447,
      "Ġ380": 4448,
      "4800": 4449,
      "6028": 4450,
      "Ġgrid": 4451,
      "5790": 4452,
      "Ġwithout": 4453,
      "Ġmoodi": 4454,
      "48067": 4455,
      "raction": 4456,
      "mar": 4457,
      "Ġhenc": 4458,
      "656": 4459,
      "Ġtwentyfive": 4460,
      "4027": 4461,
      "Ġgrade": 4462,
      "098": 4463,
      "Ġnten": 4464,
      "Ġderman": 4465,
      "1510": 4466,
      "Ġ470": 4467,
      "4110": 4468,
      "Ġncompound": 4469,
      "ative": 4470,
      "Ġcome": 4471,
      "Ġ203": 4472,
      "Ġnswap": 4473,
      "8440": 4474,
      "Ġfiftysix": 4475,
      "sixty": 4476,
      "Ġ61": 4477,
      "Ġnqu": 4478,
      "164": 4479,
      "209": 4480,
      "ott": 4481,
      "Ġdaysn": 4482,
      "7850": 4483,
      "Ġsixtyon": 4484,
      "Ġpredict": 4485,
      "Ġ196": 4486,
      "xadday": 4487,
      "1365060007": 4488,
      "Ġnfinanci": 4489,
      "Ġ31548067": 4490,
      "13650600075584": 4491,
      "Ġ3154806713650600075584": 4492,
      "arili": 4493,
      "Ġ370": 4494,
      "Ġ268": 4495,
      "9960": 4496,
      "0002": 4497,
      "4598": 4498,
      "376": 4499,
      "Ġnput": 4500,
      "Ġsixtyseven": 4501,
      "Ġ13200035": 4502,
      "Ġbehavior": 4503,
      "590": 4504,
      "ndec": 4505,
      "Ġ211": 4506,
      "324": 4507,
      "1638": 4508,
      "Ġeighti": 4509,
      "Ġbasket": 4510,
      "nfive": 4511,
      "Ġ201": 4512,
      "Ġexchangetrad": 4513,
      "Ġliabil": 4514,
      "Ġ15700": 4515,
      "Ġnequal": 4516,
      "Ġncurrent": 4517,
      "aff": 4518,
      "centi": 4519,
      "Ġeg": 4520,
      "ram": 4521,
      "thand": 4522,
      "staff": 4523,
      "3670": 4524,
      "4040": 4525,
      "524": 4526,
      "Ġjoh": 4527,
      "nsu": 4528,
      "Ġnonfinanci": 4529,
      "Ġnreturn": 4530,
      "Ġ12700": 4531,
      "Ġjohn": 4532,
      "Ġnk": 4533,
      "Ġszeron": 4534,
      "Ġ322": 4535,
      "Ġ236": 4536,
      "Ġ214": 4537,
      "Ġndollar": 4538,
      "Ġxtwo": 4539,
      "Ġ344": 4540,
      "4830": 4541,
      "Ġuser": 4542,
      "etwon": 4543,
      "Ġ71": 4544,
      "xadyear": 4545,
      "Ġanalog": 4546,
      "Ġwritten": 4547,
      "833": 4548,
      "Ġ345": 4549,
      "Ġ347": 4550,
      "6230": 4551,
      "Ġfortyonen": 4552,
      "5062": 4553,
      "Ġ221": 4554,
      "Ġsuffici": 4555,
      "Ġnfore": 4556,
      "Ġdefinit": 4557,
      "Ġnyield": 4558,
      "Ġnta": 4559,
      "Ġph": 4560,
      "Ġfit": 4561,
      "8910": 4562,
      "blig": 4563,
      "Ġ107900": 4564,
      "Ġ375": 4565,
      "Ġnthese": 4566,
      "twentyonen": 4567,
      "Ġ302": 4568,
      "Ġexpens": 4569,
      "648428": 4570,
      "Ġtwofactor": 4571,
      "77200": 4572,
      "6269": 4573,
      "ask": 4574,
      "Ġreset": 4575,
      "Ġ720006605751": 4576,
      "ounc": 4577,
      "ind": 4578,
      "Ġith": 4579,
      "544815": 4580,
      "Ġnotat": 4581,
      "Ġ600": 4582,
      "argin": 4583,
      "antan": 4584,
      "avor": 4585,
      "egel": 4586,
      "phas": 4587,
      "Ġinterpret": 4588,
      "Ġcell": 4589,
      "Ġ331": 4590,
      "3920": 4591,
      "3520": 4592,
      "3722": 4593,
      "4142": 4594,
      "Ġworst": 4595,
      "Ġnwill": 4596,
      "Ġheavier": 4597,
      "04": 4598,
      "06": 4599,
      "hel": 4600,
      "Ġotc": 4601,
      "Ġnset": 4602,
      "uresn": 4603,
      "Ġful": 4604,
      "9920": 4605,
      "4660": 4606,
      "max": 4607,
      "Ġmon": 4608,
      "7264": 4609,
      "Ġ205": 4610,
      "116868": 4611,
      "148506024": 4612,
      "Ġ13300057148506024": 4613,
      "Ġ10800057080480": 4614,
      "Ġ13300057148506024116868": 4615,
      "itte": 4616,
      "Ġ367": 4617,
      "82140": 4618,
      "48153682140": 4619,
      "39048153682140": 4620,
      "Ġprefer": 4621,
      "Ġcommitte": 4622,
      "Ġnwhat": 4623,
      "plicit": 4624,
      "Ġnpayoff": 4625,
      "Ġnvariabl": 4626,
      "Ġ1320003539048153682140": 4627,
      "Ġnterm": 4628,
      "Ġnfollow": 4629,
      "4833": 4630,
      "Ġvest": 4631,
      "Ġslight": 4632,
      "ni": 4633,
      "4820": 4634,
      "Ġ245": 4635,
      "terv": 4636,
      "sixnp": 4637,
      "nequ": 4638,
      "552": 4639,
      "Ġfew": 4640,
      "Ġ237": 4641,
      "Ġsixsix": 4642,
      "4310": 4643,
      "Ġnhas": 4644,
      "135500": 4645,
      "pectivelyn": 4646,
      "Ġton": 4647,
      "orpor": 4648,
      "Ġoblig": 4649,
      "1270": 4650,
      "oneonen": 4651,
      "Ġ516": 4652,
      "Ġcommon": 4653,
      "Ġlittl": 4654,
      "effici": 4655,
      "Ġtool": 4656,
      "2280": 4657,
      "4662": 4658,
      "Ġnoth": 4659,
      "Ġassign": 4660,
      "Ġliabl": 4661,
      "da": 4662,
      "Ġ232": 4663,
      "Ġ275": 4664,
      "153": 4665,
      "2230": 4666,
      "Ġwithin": 4667,
      "Ġconverg": 4668,
      "threethre": 4669,
      "Ġonentwo": 4670,
      "ĠÎ»": 4671,
      "Ġwrite": 4672,
      "Ġncorrespond": 4673,
      "Ġ169": 4674,
      "evenn": 4675,
      "Ġexdividend": 4676,
      "Ġsixnb": 4677,
      "Ġgnzero": 4678,
      "2950": 4679,
      "Ġnsuppos": 4680,
      "Ġ278": 4681,
      "2700": 4682,
      "Ġnspread": 4683,
      "Ġ06566": 4684,
      "Ġnod": 4685,
      "Ġ358": 4686,
      "9985": 4687,
      "3040": 4688,
      "4980": 4689,
      "fourfour": 4690,
      "Ġ587": 4691,
      "onthre": 4692,
      "Ġninetyf": 4693,
      "Ġbushel": 4694,
      "ges": 4695,
      "Ġet": 4696,
      "986": 4697,
      "6150": 4698,
      "omest": 4699,
      "Ġnews": 4700,
      "628554": 4701,
      "Ġpu": 4702,
      "Ġce": 4703,
      "1830": 4704,
      "3750": 4705,
      "Ġnacc": 4706,
      "iley": 4707,
      "Ġ13299857": 4708,
      "ity": 4709,
      "46350": 4710,
      "Ġproof": 4711,
      "Ġplan": 4712,
      "Ġquestionsn": 4713,
      "Ġtreat": 4714,
      "Ġ179": 4715,
      "3362": 4716,
      "596": 4717,
      "Ġninetyonen": 4718,
      "Ġhighest": 4719,
      "Ġdaten": 4720,
      "Ġsolv": 4721,
      "ilater": 4722,
      "Ġ75": 4723,
      "Ġ76": 4724,
      "Ġnwell": 4725,
      "50481550": 4726,
      "Ġsharehold": 4727,
      "ompani": 4728,
      "Ġsay": 4729,
      "Ġsourc": 4730,
      "Ġled": 4731,
      "Ġ146": 4732,
      "Ġ348": 4733,
      "6238": 4734,
      "6020": 4735,
      "Ġpricesn": 4736,
      "esix": 4737,
      "1310": 4738,
      "506016": 4739,
      "Ġview": 4740,
      "centil": 4741,
      "Ġnoden": 4742,
      "Ġfeder": 4743,
      "Ġoppos": 4744,
      "595": 4745,
      "Ġfiftyninen": 4746,
      "Ġexpon": 4747,
      "481490": 4748,
      "Ġsevensevensevenn": 4749,
      "03": 4750,
      "aim": 4751,
      "neleven": 4752,
      "1570": 4753,
      "Ġgaussian": 4754,
      "141": 4755,
      "Ġsoci": 4756,
      "Ġseventyn": 4757,
      "Ġseventysevenn": 4758,
      "fifteen": 4759,
      "rangl": 4760,
      "Ġtwostep": 4761,
      "4012": 4762,
      "elect": 4763,
      "3460": 4764,
      "ustri": 4765,
      "Ġrespectivelyn": 4766,
      "Ġnmonth": 4767,
      "ustral": 4768,
      "Ġintegr": 4769,
      "Ġfitch": 4770,
      "Ġ326": 4771,
      "807": 4772,
      "Ġtwentyone": 4773,
      "Ġnprovid": 4774,
      "Ġeasier": 4775,
      "ren": 4776,
      "Ġ171": 4777,
      "anill": 4778,
      "Ġchicago": 4779,
      "Ġfortyn": 4780,
      "anilla": 4781,
      "pet": 4782,
      "Ġcour": 4783,
      "Ġ154": 4784,
      "Ġmak": 4785,
      "Ġ256": 4786,
      "Ġstress": 4787,
      "8232": 4788,
      "petu": 4789,
      "649": 4790,
      "short": 4791,
      "Ġ230": 4792,
      "1535": 4793,
      "3340": 4794,
      "elta": 4795,
      "Ġnthey": 4796,
      "Ġaren": 4797,
      "Ġsixtysixn": 4798,
      "Ġprepar": 4799,
      "Ġemphas": 4800,
      "Ġthin": 4801,
      "itor": 4802,
      "Ġ247": 4803,
      "103": 4804,
      "Ġcopper": 4805,
      "Ġlehman": 4806,
      "nvalu": 4807,
      "Ġsone": 4808,
      "Ġmer": 4809,
      "Ġ246": 4810,
      "123": 4811,
      "4985": 4812,
      "3140": 4813,
      "6900": 4814,
      "Ġnob": 4815,
      "Ġimpro": 4816,
      "562": 4817,
      "1672": 4818,
      "Ġnpoint": 4819,
      "Ġ468000": 4820,
      "Ġfootnot": 4821,
      "732": 4822,
      "6259": 4823,
      "Ġ13300044": 4824,
      "6447": 4825,
      "Ġidea": 4826,
      "260": 4827,
      "Ġaustral": 4828,
      "Ġfraction": 4829,
      "2220": 4830,
      "874745": 4831,
      "plit": 4832,
      "88116": 4833,
      "Ġnthir": 4834,
      "Ġ56": 4835,
      "Ġnpurchas": 4836,
      "Ġthirtyninen": 4837,
      "Ġcompoundingn": 4838,
      "Ġseller": 4839,
      "Ġparticip": 4840,
      "Ġ13300057160": 4841,
      "Ġmaxim": 4842,
      "Ġschwartz": 4843,
      "Ġconsumpt": 4844,
      "aci": 4845,
      "eti": 4846,
      "her": 4847,
      "ison": 4848,
      "4678": 4849,
      "8980": 4850,
      "Ġorgan": 4851,
      "Ġcoeffici": 4852,
      "Ġswiss": 4853,
      "Ġeightytwo": 4854,
      "Ġoutcom": 4855,
      "Ġsummer": 4856,
      "257": 4857,
      "orag": 4858,
      "Ġnam": 4859,
      "Ġ219": 4860,
      "olog": 4861,
      "4730": 4862,
      "526": 4863,
      "8050": 4864,
      "Ġfivea": 4865,
      "4448": 4866,
      "Ġorang": 4867,
      "ffi": 4868,
      "aterfal": 4869,
      "nper": 4870,
      "Ġindustri": 4871,
      "Ġmaker": 4872,
      "fe": 4873,
      "Ġntion": 4874,
      "Ġnestim": 4875,
      "5050": 4876,
      "andon": 4877,
      "3800": 4878,
      "5260": 4879,
      "1445": 4880,
      "Ġndividend": 4881,
      "ccess": 4882,
      "69028": 4883,
      "Ġnmean": 4884,
      "Ġid": 4885,
      "009": 4886,
      "Ġinthemoney": 4887,
      "1010": 4888,
      "1440": 4889,
      "Ġcalibr": 4890,
      "6440": 4891,
      "6840": 4892,
      "8540": 4893,
      "Ġdayn": 4894,
      "1626": 4895,
      "Ġcheck": 4896,
      "Ġ398": 4897,
      "Ġ279": 4898,
      "6220": 4899,
      "3472": 4900,
      "3112": 4901,
      "Ġmaturityn": 4902,
      "481000": 4903,
      "Ġ100000": 4904,
      "96116": 4905,
      "Ġpm": 4906,
      "Ġdomest": 4907,
      "484": 4908,
      "3512": 4909,
      "8900": 4910,
      "00506500": 4911,
      "fortyfourn": 4912,
      "Ġ420": 4913,
      "Ġ340": 4914,
      "474": 4915,
      "694": 4916,
      "Ġimprov": 4917,
      "Ġ575": 4918,
      "Ġ281": 4919,
      "black": 4920,
      "Ġninetytwo": 4921,
      "6340": 4922,
      "Ġpreced": 4923,
      "Ġnsimilar": 4924,
      "Ġnnumber": 4925,
      "6573": 4926,
      "1862": 4927,
      "174": 4928,
      "Ġcomplic": 4929,
      "1399": 4930,
      "2140": 4931,
      "Ġmeet": 4932,
      "Ġthreethree": 4933,
      "Ġ287409": 4934,
      "Ġuncorrel": 4935,
      "ss": 4936,
      "ndisc": 4937,
      "Ġcva": 4938,
      "Ġbad": 4939,
      "Ġnshort": 4940,
      "rubinstein": 4941,
      "lik": 4942,
      "Ġaccuraci": 4943,
      "hu": 4944,
      "wenty": 4945,
      "Ġdva": 4946,
      "intain": 4947,
      "3245": 4948,
      "chan": 4949,
      "4460": 4950,
      "143": 4951,
      "Ġ13300088116": 4952,
      "Ġ445": 4953,
      "Ġlender": 4954,
      "14300096116": 4955,
      "Ġ468000660262479000671262": 4956,
      "Ġ1330008811614300096116": 4957,
      "valu": 4958,
      "Ġsol": 4959,
      "Ġhdd": 4960,
      "3135": 4961,
      "advantag": 4962,
      "6687": 4963,
      "6666": 4964,
      "Ġnrequir": 4965,
      "Ġnsecond": 4966,
      "210": 4967,
      "aft": 4968,
      "Ġfone": 4969,
      "Ġ159": 4970,
      "4010": 4971,
      "andin": 4972,
      "Ġjapan": 4973,
      "3470": 4974,
      "Ġopposit": 4975,
      "no": 4976,
      "Ġig": 4977,
      "Ġai": 4978,
      "Ġ372": 4979,
      "5430": 4980,
      "00005": 4981,
      "Ġextract": 4982,
      "rich": 4983,
      "Ġselect": 4984,
      "Ġpi": 4985,
      "Ġforec": 4986,
      "4542": 4987,
      "Ġ71900": 4988,
      "Ġncash": 4989,
      "rude": 4990,
      "Ġndoe": 4991,
      "79170": 4992,
      "5060377": 4993,
      "ension": 4994,
      "Ġmine": 4995,
      "Ġ01217": 4996,
      "Ġtill": 4997,
      "Ġinflow": 4998,
      "4612": 4999
    },
    "merges": [
      [
        "Ġ",
        "t"
      ],
      [
        "o",
        "n"
      ],
      [
        "Ġ",
        "a"
      ],
      [
        "Ġt",
        "h"
      ],
      [
        "o",
        "r"
      ],
      [
        "t",
        "e"
      ],
      [
        "i",
        "n"
      ],
      [
        "Ġth",
        "e"
      ],
      [
        "a",
        "l"
      ],
      [
        "Ġ",
        "n"
      ],
      [
        "0",
        "0"
      ],
      [
        "e",
        "n"
      ],
      [
        "Ġ",
        "s"
      ],
      [
        "Ġ",
        "l"
      ],
      [
        "e",
        "r"
      ],
      [
        "Ġ",
        "p"
      ],
      [
        "on",
        "t"
      ],
      [
        "o",
        "x"
      ],
      [
        "n",
        "d"
      ],
      [
        "x",
        "t"
      ],
      [
        "h",
        "or"
      ],
      [
        "t",
        "te"
      ],
      [
        "i",
        "z"
      ],
      [
        "hor",
        "iz"
      ],
      [
        "horiz",
        "ont"
      ],
      [
        "tte",
        "xt"
      ],
      [
        "Ġl",
        "ttext"
      ],
      [
        "b",
        "ox"
      ],
      [
        "horizont",
        "al"
      ],
      [
        "box",
        "horizontal"
      ],
      [
        "Ġlttext",
        "boxhorizontal"
      ],
      [
        "r",
        "e"
      ],
      [
        "Ġ",
        "f"
      ],
      [
        "i",
        "s"
      ],
      [
        "Ġt",
        "w"
      ],
      [
        "Ġ",
        "o"
      ],
      [
        "Ġ",
        "c"
      ],
      [
        "Ġ",
        "1"
      ],
      [
        "Ġa",
        "nd"
      ],
      [
        "Ġ",
        "e"
      ],
      [
        "a",
        "r"
      ],
      [
        "Ġ",
        "b"
      ],
      [
        "a",
        "t"
      ],
      [
        "u",
        "r"
      ],
      [
        "Ġ",
        "d"
      ],
      [
        "5",
        "0"
      ],
      [
        "Ġ",
        "w"
      ],
      [
        "Ġ",
        "m"
      ],
      [
        "Ġ",
        "in"
      ],
      [
        "Ġp",
        "o"
      ],
      [
        "a",
        "n"
      ],
      [
        "Ġo",
        "f"
      ],
      [
        "t",
        "y"
      ],
      [
        "Ġ",
        "is"
      ],
      [
        "Ġtw",
        "o"
      ],
      [
        "z",
        "er"
      ],
      [
        "Ġ",
        "on"
      ],
      [
        "in",
        "t"
      ],
      [
        "Ġ",
        "h"
      ],
      [
        "Ġpo",
        "int"
      ],
      [
        "t",
        "i"
      ],
      [
        "zer",
        "o"
      ],
      [
        "7",
        "7"
      ],
      [
        "Ġ",
        "3"
      ],
      [
        "6",
        "5"
      ],
      [
        "u",
        "s"
      ],
      [
        "4",
        "8"
      ],
      [
        "i",
        "t"
      ],
      [
        "Ġ",
        "2"
      ],
      [
        "Ġp",
        "r"
      ],
      [
        "1",
        "5"
      ],
      [
        "i",
        "v"
      ],
      [
        "en",
        "ty"
      ],
      [
        "9",
        "9"
      ],
      [
        "Ġf",
        "or"
      ],
      [
        "r",
        "a"
      ],
      [
        "00",
        "0"
      ],
      [
        "i",
        "c"
      ],
      [
        "Ġ",
        "zero"
      ],
      [
        "Ġt",
        "o"
      ],
      [
        "Ġon",
        "e"
      ],
      [
        "e",
        "v"
      ],
      [
        "u",
        "nd"
      ],
      [
        "Ġa",
        "s"
      ],
      [
        "i",
        "g"
      ],
      [
        "i",
        "m"
      ],
      [
        "i",
        "f"
      ],
      [
        "6",
        "2"
      ],
      [
        "e",
        "t"
      ],
      [
        "â",
        "Ģ"
      ],
      [
        "o",
        "w"
      ],
      [
        "re",
        "e"
      ],
      [
        "3",
        "3"
      ],
      [
        "Ġ",
        "v"
      ],
      [
        "q",
        "u"
      ],
      [
        "Ġtw",
        "enty"
      ],
      [
        "u",
        "l"
      ],
      [
        "t",
        "h"
      ],
      [
        "s",
        "t"
      ],
      [
        "ev",
        "en"
      ],
      [
        "3",
        "6"
      ],
      [
        "ti",
        "on"
      ],
      [
        "2",
        "2"
      ],
      [
        "4",
        "0"
      ],
      [
        "4",
        "5"
      ],
      [
        "i",
        "x"
      ],
      [
        "o",
        "m"
      ],
      [
        "Ġh",
        "und"
      ],
      [
        "7",
        "2"
      ],
      [
        "1",
        "0"
      ],
      [
        "ig",
        "h"
      ],
      [
        "u",
        "t"
      ],
      [
        "Ġhund",
        "r"
      ],
      [
        "o",
        "l"
      ],
      [
        "c",
        "t"
      ],
      [
        "1",
        "2"
      ],
      [
        "6",
        "0"
      ],
      [
        "o",
        "ur"
      ],
      [
        "p",
        "p"
      ],
      [
        "ic",
        "e"
      ],
      [
        "4",
        "2"
      ],
      [
        "3",
        "9"
      ],
      [
        "i",
        "l"
      ],
      [
        "e",
        "l"
      ],
      [
        "Ġth",
        "ree"
      ],
      [
        "7",
        "0"
      ],
      [
        "t",
        "w"
      ],
      [
        "3",
        "2"
      ],
      [
        "a",
        "s"
      ],
      [
        "p",
        "tion"
      ],
      [
        "Ġ1",
        "0"
      ],
      [
        "ar",
        "d"
      ],
      [
        "c",
        "h"
      ],
      [
        "Ġpr",
        "ice"
      ],
      [
        "Ġs",
        "t"
      ],
      [
        "Ġ",
        "k"
      ],
      [
        "Ġ",
        "re"
      ],
      [
        "a",
        "nd"
      ],
      [
        "3",
        "5"
      ],
      [
        "4",
        "6"
      ],
      [
        "Ġo",
        "ption"
      ],
      [
        "Ġth",
        "at"
      ],
      [
        "3",
        "0"
      ],
      [
        "Ġe",
        "qu"
      ],
      [
        "c",
        "k"
      ],
      [
        "iv",
        "e"
      ],
      [
        "igh",
        "t"
      ],
      [
        "Ġb",
        "e"
      ],
      [
        "ra",
        "te"
      ],
      [
        "1",
        "8"
      ],
      [
        "Ġe",
        "x"
      ],
      [
        "1",
        "6"
      ],
      [
        "Ġ",
        "r"
      ],
      [
        "3",
        "8"
      ],
      [
        "w",
        "ard"
      ],
      [
        "f",
        "er"
      ],
      [
        "Ġs",
        "even"
      ],
      [
        "Ġw",
        "h"
      ],
      [
        "Ġa",
        "pp"
      ],
      [
        "4",
        "7"
      ],
      [
        "Ġs",
        "ix"
      ],
      [
        "ow",
        "n"
      ],
      [
        "Ġn",
        "in"
      ],
      [
        "o",
        "d"
      ],
      [
        "4",
        "9"
      ],
      [
        "Ġ",
        "rate"
      ],
      [
        "1",
        "9"
      ],
      [
        "Ġ",
        "us"
      ],
      [
        "a",
        "y"
      ],
      [
        "Ġa",
        "n"
      ],
      [
        "Ġ",
        "g"
      ],
      [
        "Ġequ",
        "at"
      ],
      [
        "if",
        "fer"
      ],
      [
        "5",
        "2"
      ],
      [
        "Ġapp",
        "r"
      ],
      [
        "Ġd",
        "iffer"
      ],
      [
        "Ġ",
        "âĢ"
      ],
      [
        "8",
        "0"
      ],
      [
        "u",
        "m"
      ],
      [
        "Ġk",
        "n"
      ],
      [
        "o",
        "us"
      ],
      [
        "48",
        "15"
      ],
      [
        "i",
        "r"
      ],
      [
        "te",
        "r"
      ],
      [
        "8",
        "9"
      ],
      [
        "1",
        "7"
      ],
      [
        "Ġtwenty",
        "on"
      ],
      [
        "Ġkn",
        "own"
      ],
      [
        "ous",
        "and"
      ],
      [
        "Ġth",
        "ousand"
      ],
      [
        "âĢ",
        "ĵ"
      ],
      [
        "ox",
        "im"
      ],
      [
        "Ġus",
        "e"
      ],
      [
        "Ġ",
        "j"
      ],
      [
        "Ġf",
        "ive"
      ],
      [
        "Ġappr",
        "oxim"
      ],
      [
        "i",
        "d"
      ],
      [
        "Ġa",
        "re"
      ],
      [
        "Ġnin",
        "e"
      ],
      [
        "2",
        "0"
      ],
      [
        "65",
        "77"
      ],
      [
        "Ġw",
        "e"
      ],
      [
        "Ġf",
        "our"
      ],
      [
        "3",
        "7"
      ],
      [
        "u",
        "n"
      ],
      [
        "o",
        "s"
      ],
      [
        "Ġe",
        "ight"
      ],
      [
        "3",
        "4"
      ],
      [
        "a",
        "p"
      ],
      [
        "v",
        "e"
      ],
      [
        "3",
        "1"
      ],
      [
        "al",
        "u"
      ],
      [
        "Ġ",
        "it"
      ],
      [
        "a",
        "m"
      ],
      [
        "Ġpr",
        "o"
      ],
      [
        "Ġth",
        "is"
      ],
      [
        "6",
        "9"
      ],
      [
        "tw",
        "o"
      ],
      [
        "e",
        "s"
      ],
      [
        "8",
        "7"
      ],
      [
        "Ġa",
        "t"
      ],
      [
        "it",
        "h"
      ],
      [
        "8",
        "2"
      ],
      [
        "p",
        "l"
      ],
      [
        "Ġv",
        "alu"
      ],
      [
        "9",
        "0"
      ],
      [
        "en",
        "t"
      ],
      [
        "b",
        "l"
      ],
      [
        "e",
        "ar"
      ],
      [
        "6",
        "7"
      ],
      [
        "Ġn",
        "o"
      ],
      [
        "Ġ1",
        "33"
      ],
      [
        "1",
        "1"
      ],
      [
        "Ġ",
        "y"
      ],
      [
        "p",
        "e"
      ],
      [
        "5",
        "7"
      ],
      [
        "4",
        "4"
      ],
      [
        "Ġfor",
        "ward"
      ],
      [
        "r",
        "i"
      ],
      [
        "Ġw",
        "ith"
      ],
      [
        "o",
        "ck"
      ],
      [
        "Ġ10",
        "7"
      ],
      [
        "te",
        "en"
      ],
      [
        "a",
        "d"
      ],
      [
        "e",
        "d"
      ],
      [
        "on",
        "d"
      ],
      [
        "8",
        "00"
      ],
      [
        "Ġs",
        "e"
      ],
      [
        "8",
        "3"
      ],
      [
        "1",
        "4"
      ],
      [
        "Ġd",
        "e"
      ],
      [
        "or",
        "e"
      ],
      [
        "on",
        "e"
      ],
      [
        "Ġ107",
        "99"
      ],
      [
        "Ġ",
        "0"
      ],
      [
        "5",
        "5"
      ],
      [
        "a",
        "ck"
      ],
      [
        "Ġc",
        "om"
      ],
      [
        "Ġ133",
        "000"
      ],
      [
        "Ġc",
        "al"
      ],
      [
        "Ġst",
        "ock"
      ],
      [
        "77",
        "0"
      ],
      [
        "Ġm",
        "ore"
      ],
      [
        "a",
        "bl"
      ],
      [
        "Ġ3",
        "7"
      ],
      [
        "is",
        "k"
      ],
      [
        "Ġp",
        "er"
      ],
      [
        "Ġt",
        "im"
      ],
      [
        "8",
        "8"
      ],
      [
        "ar",
        "i"
      ],
      [
        "Ġb",
        "y"
      ],
      [
        "Ġ",
        "4"
      ],
      [
        "Ġas",
        "s"
      ],
      [
        "Ġc",
        "h"
      ],
      [
        "Ġtim",
        "e"
      ],
      [
        "9",
        "7"
      ],
      [
        "8",
        "000"
      ],
      [
        "en",
        "d"
      ],
      [
        "an",
        "g"
      ],
      [
        "Ġin",
        "te"
      ],
      [
        "Ġr",
        "isk"
      ],
      [
        "c",
        "i"
      ],
      [
        "il",
        "l"
      ],
      [
        "5",
        "00"
      ],
      [
        "5",
        "9"
      ],
      [
        "Ġn",
        "is"
      ],
      [
        "Ġn",
        "th"
      ],
      [
        "Ġc",
        "ont"
      ],
      [
        "Ġ10",
        "8000"
      ],
      [
        "45",
        "7"
      ],
      [
        "re",
        "st"
      ],
      [
        "ra",
        "ct"
      ],
      [
        "Ġn",
        "e"
      ],
      [
        "Ġc",
        "on"
      ],
      [
        "Ġtwenty",
        "n"
      ],
      [
        "s",
        "even"
      ],
      [
        "Ġm",
        "ar"
      ],
      [
        "f",
        "our"
      ],
      [
        "or",
        "t"
      ],
      [
        "v",
        "er"
      ],
      [
        "d",
        "e"
      ],
      [
        "46",
        "1"
      ],
      [
        "et",
        "r"
      ],
      [
        "r",
        "om"
      ],
      [
        "Ġs",
        "y"
      ],
      [
        "k",
        "e"
      ],
      [
        "Ġcom",
        "p"
      ],
      [
        "ut",
        "ur"
      ],
      [
        "39",
        "1"
      ],
      [
        "Ġb",
        "ack"
      ],
      [
        "6",
        "4"
      ],
      [
        "Ġtw",
        "on"
      ],
      [
        "Ġs",
        "h"
      ],
      [
        "2",
        "7"
      ],
      [
        "m",
        "m"
      ],
      [
        "s",
        "ix"
      ],
      [
        "6",
        "8"
      ],
      [
        "Ġc",
        "an"
      ],
      [
        "Ġf",
        "rom"
      ],
      [
        "Ġinte",
        "rest"
      ],
      [
        "2",
        "5"
      ],
      [
        "od",
        "el"
      ],
      [
        "50",
        "65"
      ],
      [
        "4815",
        "36"
      ],
      [
        "mm",
        "etr"
      ],
      [
        "1",
        "00"
      ],
      [
        "89",
        "77"
      ],
      [
        "Ġwh",
        "en"
      ],
      [
        "Ġf",
        "utur"
      ],
      [
        "Ġback",
        "ward"
      ],
      [
        "6577",
        "8977"
      ],
      [
        "770",
        "457"
      ],
      [
        "Ġ37",
        "461"
      ],
      [
        "391",
        "65778977"
      ],
      [
        "770457",
        "39165778977"
      ],
      [
        "Ġ37461",
        "77045739165778977"
      ],
      [
        "Ġsy",
        "mmetr"
      ],
      [
        "a",
        "g"
      ],
      [
        "800",
        "62"
      ],
      [
        "72",
        "481536"
      ],
      [
        "6577",
        "72481536"
      ],
      [
        "Ġ10799",
        "657772481536"
      ],
      [
        "Ġ10799657772481536",
        "80062"
      ],
      [
        "2",
        "9"
      ],
      [
        "Ġa",
        "l"
      ],
      [
        "at",
        "il"
      ],
      [
        "ol",
        "atil"
      ],
      [
        "Ġth",
        "ir"
      ],
      [
        "Ġm",
        "odel"
      ],
      [
        "Ġ",
        "if"
      ],
      [
        "c",
        "ul"
      ],
      [
        "tw",
        "enty"
      ],
      [
        "6",
        "6"
      ],
      [
        "1",
        "3"
      ],
      [
        "Ġy",
        "ear"
      ],
      [
        "Ġ",
        "5"
      ],
      [
        "er",
        "e"
      ],
      [
        "Ġv",
        "olatil"
      ],
      [
        "Ġ",
        "or"
      ],
      [
        "8",
        "5"
      ],
      [
        "et",
        "w"
      ],
      [
        "Ġc",
        "o"
      ],
      [
        "a",
        "in"
      ],
      [
        "Ġcont",
        "ract"
      ],
      [
        "Ġb",
        "ond"
      ],
      [
        "s",
        "n"
      ],
      [
        "ĠâĢ",
        "Ŀ"
      ],
      [
        "k",
        "et"
      ],
      [
        "Ġs",
        "w"
      ],
      [
        "e",
        "en"
      ],
      [
        "ĠâĢ",
        "ľ"
      ],
      [
        "i",
        "on"
      ],
      [
        "Ġnth",
        "e"
      ],
      [
        "th",
        "re"
      ],
      [
        "ont",
        "h"
      ],
      [
        "re",
        "s"
      ],
      [
        "Ġs",
        "u"
      ],
      [
        "e",
        "m"
      ],
      [
        "a",
        "ch"
      ],
      [
        "iv",
        "en"
      ],
      [
        "n",
        "in"
      ],
      [
        "5",
        "4"
      ],
      [
        "Ġp",
        "ay"
      ],
      [
        "ul",
        "t"
      ],
      [
        "Ġf",
        "in"
      ],
      [
        "Ġmar",
        "ket"
      ],
      [
        "etw",
        "een"
      ],
      [
        "o",
        "t"
      ],
      [
        "Ġsw",
        "ap"
      ],
      [
        "Ġ",
        "7"
      ],
      [
        "f",
        "ol"
      ],
      [
        "Ġn",
        "p"
      ],
      [
        "15",
        "8"
      ],
      [
        "36",
        "9"
      ],
      [
        "i",
        "o"
      ],
      [
        "pe",
        "ct"
      ],
      [
        "Ġn",
        "c"
      ],
      [
        "Ġh",
        "a"
      ],
      [
        "ort",
        "fol"
      ],
      [
        "u",
        "p"
      ],
      [
        "f",
        "or"
      ],
      [
        "Ġpo",
        "s"
      ],
      [
        "50",
        "6"
      ],
      [
        "2",
        "8"
      ],
      [
        "Ġj",
        "ul"
      ],
      [
        "Ġb",
        "etween"
      ],
      [
        "ul",
        "d"
      ],
      [
        "Ġv",
        "ari"
      ],
      [
        "zer",
        "on"
      ],
      [
        "2",
        "4"
      ],
      [
        "Ġf",
        "if"
      ],
      [
        "9",
        "8"
      ],
      [
        "2",
        "6"
      ],
      [
        "is",
        "t"
      ],
      [
        "Ġp",
        "ortfol"
      ],
      [
        "Ġt",
        "ra"
      ],
      [
        "Ġc",
        "ur"
      ],
      [
        "2",
        "1"
      ],
      [
        "65",
        "00"
      ],
      [
        "r",
        "an"
      ],
      [
        "5",
        "8"
      ],
      [
        "3",
        "50"
      ],
      [
        "un",
        "t"
      ],
      [
        "Ġthe",
        "re"
      ],
      [
        "Ġse",
        "e"
      ],
      [
        "in",
        "g"
      ],
      [
        "6",
        "1"
      ],
      [
        "er",
        "iv"
      ],
      [
        "an",
        "i"
      ],
      [
        "ol",
        "l"
      ],
      [
        "Ġ3",
        "52"
      ],
      [
        "Ġcal",
        "cul"
      ],
      [
        "e",
        "ight"
      ],
      [
        "Ġ2",
        "0"
      ],
      [
        "Ġcal",
        "l"
      ],
      [
        "â",
        "Ī"
      ],
      [
        "Ġd",
        "el"
      ],
      [
        "Ġno",
        "t"
      ],
      [
        "4",
        "1"
      ],
      [
        "Ġass",
        "et"
      ],
      [
        "ch",
        "ang"
      ],
      [
        "ig",
        "ur"
      ],
      [
        "an",
        "c"
      ],
      [
        "Ġportfol",
        "io"
      ],
      [
        "us",
        "t"
      ],
      [
        "Ġcon",
        "s"
      ],
      [
        "Ġ",
        "zeron"
      ],
      [
        "es",
        "s"
      ],
      [
        "5",
        "6"
      ],
      [
        "o",
        "uld"
      ],
      [
        "at",
        "ur"
      ],
      [
        "ti",
        "m"
      ],
      [
        "65",
        "87"
      ],
      [
        "twenty",
        "n"
      ],
      [
        "Ġa",
        "m"
      ],
      [
        "a",
        "ct"
      ],
      [
        "69",
        "500"
      ],
      [
        "f",
        "f"
      ],
      [
        "Ġon",
        "en"
      ],
      [
        "158",
        "69500"
      ],
      [
        "369",
        "6587"
      ],
      [
        "Ġ352",
        "15869500"
      ],
      [
        "3696587",
        "6500"
      ],
      [
        "Ġ35215869500",
        "36965876500"
      ],
      [
        "Ġjul",
        "twentyn"
      ],
      [
        "Ġd",
        "eriv"
      ],
      [
        "âĪ",
        "Ĩ"
      ],
      [
        "Ġn",
        "s"
      ],
      [
        "Ġs",
        "p"
      ],
      [
        "am",
        "pl"
      ],
      [
        "4",
        "50"
      ],
      [
        "ed",
        "g"
      ],
      [
        "Ġ",
        "6"
      ],
      [
        "Ġm",
        "o"
      ],
      [
        "Ġpro",
        "c"
      ],
      [
        "Ġde",
        "f"
      ],
      [
        "Ġh",
        "as"
      ],
      [
        "Ġass",
        "um"
      ],
      [
        "Ġm",
        "e"
      ],
      [
        "ĠâĢ",
        "Ļ"
      ],
      [
        "Ġpos",
        "it"
      ],
      [
        "Ġ1",
        "32"
      ],
      [
        "Ġ",
        "im"
      ],
      [
        "en",
        "ti"
      ],
      [
        "Ġ",
        "un"
      ],
      [
        "o",
        "unt"
      ],
      [
        "re",
        "as"
      ],
      [
        "Ġre",
        "s"
      ],
      [
        "Ġs",
        "im"
      ],
      [
        "Ġp",
        "ut"
      ],
      [
        "m",
        "ent"
      ],
      [
        "c",
        "e"
      ],
      [
        "Ġs",
        "o"
      ],
      [
        "Ġf",
        "l"
      ],
      [
        "ri",
        "ke"
      ],
      [
        "9",
        "5"
      ],
      [
        "Ġf",
        "igur"
      ],
      [
        "ur",
        "o"
      ],
      [
        "6",
        "60"
      ],
      [
        "on",
        "en"
      ],
      [
        "Ġ",
        "72"
      ],
      [
        "ap",
        "ter"
      ],
      [
        "th",
        "er"
      ],
      [
        "Ġfor",
        "ty"
      ],
      [
        "Ġt",
        "ree"
      ],
      [
        "Ġ",
        "qu"
      ],
      [
        "f",
        "ive"
      ],
      [
        "t",
        "a"
      ],
      [
        "Ġst",
        "rike"
      ],
      [
        "Ġw",
        "ill"
      ],
      [
        "ve",
        "st"
      ],
      [
        "Ġ",
        "97"
      ],
      [
        "en",
        "c"
      ],
      [
        "r",
        "o"
      ],
      [
        "Ġthir",
        "ty"
      ],
      [
        "Ġ",
        "00"
      ],
      [
        "Ġnine",
        "ty"
      ],
      [
        "2",
        "3"
      ],
      [
        "Ġc",
        "or"
      ],
      [
        "Ġch",
        "apter"
      ],
      [
        "Ġth",
        "an"
      ],
      [
        "re",
        "d"
      ],
      [
        "9",
        "6"
      ],
      [
        "r",
        "u"
      ],
      [
        "pe",
        "an"
      ],
      [
        "Ġe",
        "uro"
      ],
      [
        "Ġse",
        "c"
      ],
      [
        "Ġha",
        "ve"
      ],
      [
        "Ġh",
        "edg"
      ],
      [
        "y",
        "ear"
      ],
      [
        "os",
        "s"
      ],
      [
        "4",
        "3"
      ],
      [
        "pp",
        "os"
      ],
      [
        "Ġn",
        "um"
      ],
      [
        "Ġan",
        "n"
      ],
      [
        "Ġex",
        "chang"
      ],
      [
        "od",
        "e"
      ],
      [
        "f",
        "re"
      ],
      [
        "b",
        "abl"
      ],
      [
        "Ġ3",
        "0"
      ],
      [
        "ci",
        "p"
      ],
      [
        "p",
        "t"
      ],
      [
        "l",
        "i"
      ],
      [
        "Ġwh",
        "ere"
      ],
      [
        "Ġh",
        "ow"
      ],
      [
        "Ġs",
        "ev"
      ],
      [
        "7",
        "5"
      ],
      [
        "a",
        "ult"
      ],
      [
        "Ġn",
        "d"
      ],
      [
        "Ġw",
        "or"
      ],
      [
        "9",
        "2"
      ],
      [
        "Ġc",
        "as"
      ],
      [
        "4",
        "00"
      ],
      [
        "Ġd",
        "ay"
      ],
      [
        "Ġeuro",
        "pean"
      ],
      [
        "Ġin",
        "vest"
      ],
      [
        "Ġbe",
        "c"
      ],
      [
        "Ġcur",
        "r"
      ],
      [
        "1",
        "50"
      ],
      [
        "Ġ",
        "âĪĨ"
      ],
      [
        "d",
        "er"
      ],
      [
        "n",
        "e"
      ],
      [
        "n",
        "zero"
      ],
      [
        "47",
        "9"
      ],
      [
        "Ġn",
        "b"
      ],
      [
        "Ġsu",
        "ppos"
      ],
      [
        "Ġcomp",
        "ani"
      ],
      [
        "iv",
        "id"
      ],
      [
        "Ġm",
        "onth"
      ],
      [
        "Ġin",
        "c"
      ],
      [
        "Ġcons",
        "id"
      ],
      [
        "o",
        "und"
      ],
      [
        "ri",
        "b"
      ],
      [
        "Ġn",
        "ode"
      ],
      [
        "Ġch",
        "ang"
      ],
      [
        "und",
        "er"
      ],
      [
        "Ġt",
        "ran"
      ],
      [
        "i",
        "ti"
      ],
      [
        "an",
        "ci"
      ],
      [
        "Ġex",
        "ampl"
      ],
      [
        "8",
        "6"
      ],
      [
        "de",
        "x"
      ],
      [
        "hor",
        "t"
      ],
      [
        "Ġn",
        "f"
      ],
      [
        "Ġth",
        "re"
      ],
      [
        "Ġex",
        "pect"
      ],
      [
        "Ġsev",
        "enty"
      ],
      [
        "Ġp",
        "res"
      ],
      [
        "Ġ132",
        "99"
      ],
      [
        "2",
        "50"
      ],
      [
        "Ġ",
        "i"
      ],
      [
        "Ġpro",
        "babl"
      ],
      [
        "Ġn",
        "m"
      ],
      [
        "8",
        "1"
      ],
      [
        "ill",
        "ion"
      ],
      [
        "ic",
        "h"
      ],
      [
        "Ġn",
        "w"
      ],
      [
        "el",
        "l"
      ],
      [
        "a",
        "te"
      ],
      [
        "am",
        "e"
      ],
      [
        "2",
        "62"
      ],
      [
        "Ġmo",
        "ve"
      ],
      [
        "Ġsh",
        "ow"
      ],
      [
        "n",
        "s"
      ],
      [
        "Ġn",
        "a"
      ],
      [
        "Ġ",
        "under"
      ],
      [
        "Ġl",
        "i"
      ],
      [
        "49",
        "0"
      ],
      [
        "t",
        "o"
      ],
      [
        "42",
        "0"
      ],
      [
        "Ġ72",
        "000"
      ],
      [
        "Ġa",
        "r"
      ],
      [
        "c",
        "is"
      ],
      [
        "Ġp",
        "ar"
      ],
      [
        "Ġann",
        "um"
      ],
      [
        "Ġt",
        "en"
      ],
      [
        "er",
        "m"
      ],
      [
        "Ġ",
        "q"
      ],
      [
        "Ġtra",
        "de"
      ],
      [
        "Ġd",
        "o"
      ],
      [
        "Ġdef",
        "ault"
      ],
      [
        "er",
        "t"
      ],
      [
        "i",
        "el"
      ],
      [
        "Ġin",
        "dex"
      ],
      [
        "48",
        "0"
      ],
      [
        "Ġfin",
        "anci"
      ],
      [
        "8",
        "4"
      ],
      [
        "m",
        "al"
      ],
      [
        "99",
        "0"
      ],
      [
        "er",
        "i"
      ],
      [
        "e",
        "ct"
      ],
      [
        "m",
        "a"
      ],
      [
        "7",
        "9"
      ],
      [
        "Ġl",
        "e"
      ],
      [
        "is",
        "c"
      ],
      [
        "Ġfif",
        "ty"
      ],
      [
        "ur",
        "n"
      ],
      [
        "Ġt",
        "n"
      ],
      [
        "Ġm",
        "illion"
      ],
      [
        "Ġb",
        "u"
      ],
      [
        "Ġe",
        "igh"
      ],
      [
        "ivid",
        "end"
      ],
      [
        "Ġm",
        "atur"
      ],
      [
        "o",
        "th"
      ],
      [
        "at",
        "h"
      ],
      [
        "Ġ97",
        "000"
      ],
      [
        "i",
        "xt"
      ],
      [
        "Ġ",
        "8"
      ],
      [
        "an",
        "n"
      ],
      [
        "Ġn",
        "and"
      ],
      [
        "Ġ133000",
        "5"
      ],
      [
        "om",
        "e"
      ],
      [
        "Ġs",
        "ame"
      ],
      [
        "Ġe",
        "s"
      ],
      [
        "5",
        "3"
      ],
      [
        "u",
        "al"
      ],
      [
        "tw",
        "on"
      ],
      [
        "Ġrisk",
        "fre"
      ],
      [
        "Ġl",
        "o"
      ],
      [
        "os",
        "e"
      ],
      [
        "Ġa",
        "d"
      ],
      [
        "Ġs",
        "hort"
      ],
      [
        "Ġw",
        "ould"
      ],
      [
        "Ġwh",
        "ich"
      ],
      [
        "ut",
        "r"
      ],
      [
        "er",
        "cis"
      ],
      [
        "7",
        "6"
      ],
      [
        "c",
        "c"
      ],
      [
        "5",
        "1"
      ],
      [
        "re",
        "l"
      ],
      [
        "Ġwh",
        "at"
      ],
      [
        "Ġit",
        "s"
      ],
      [
        "Ġe",
        "ach"
      ],
      [
        "tte",
        "r"
      ],
      [
        "Ġal",
        "l"
      ],
      [
        "n",
        "al"
      ],
      [
        "s",
        "h"
      ],
      [
        "5",
        "35"
      ],
      [
        "Ġt",
        "abl"
      ],
      [
        "on",
        "g"
      ],
      [
        "7",
        "8"
      ],
      [
        "re",
        "ad"
      ],
      [
        "2",
        "00"
      ],
      [
        "a",
        "us"
      ],
      [
        "Ġdel",
        "ta"
      ],
      [
        "t",
        "urn"
      ],
      [
        "b",
        "er"
      ],
      [
        "Ġex",
        "p"
      ],
      [
        "our",
        "nal"
      ],
      [
        "ic",
        "an"
      ],
      [
        "Ġt",
        "e"
      ],
      [
        "th",
        "ree"
      ],
      [
        "Ġo",
        "ver"
      ],
      [
        "Ġc",
        "l"
      ],
      [
        "er",
        "ican"
      ],
      [
        "il",
        "ar"
      ],
      [
        "Ġ",
        "en"
      ],
      [
        "Ġb",
        "as"
      ],
      [
        "f",
        "iven"
      ],
      [
        "er",
        "s"
      ],
      [
        "te",
        "n"
      ],
      [
        "Ġex",
        "ercis"
      ],
      [
        "Ġs",
        "ixt"
      ],
      [
        "am",
        "ma"
      ],
      [
        "iel",
        "d"
      ],
      [
        "ed",
        "ur"
      ],
      [
        "i",
        "od"
      ],
      [
        "Ġseven",
        "n"
      ],
      [
        "Ġper",
        "iod"
      ],
      [
        "Ġim",
        "pl"
      ],
      [
        "Ġl",
        "oss"
      ],
      [
        "6",
        "00"
      ],
      [
        "a",
        "c"
      ],
      [
        "an",
        "k"
      ],
      [
        "Ġvari",
        "abl"
      ],
      [
        "Ġam",
        "erican"
      ],
      [
        "Ġs",
        "ome"
      ],
      [
        "9",
        "1"
      ],
      [
        "a",
        "ter"
      ],
      [
        "Ġo",
        "ther"
      ],
      [
        "ist",
        "rib"
      ],
      [
        "70",
        "80"
      ],
      [
        "Ġproc",
        "edur"
      ],
      [
        "Ġes",
        "tim"
      ],
      [
        "Ġa",
        "b"
      ],
      [
        "Ġsim",
        "ilar"
      ],
      [
        "a",
        "st"
      ],
      [
        "ar",
        "g"
      ],
      [
        "6",
        "3"
      ],
      [
        "a",
        "ke"
      ],
      [
        "Ġre",
        "turn"
      ],
      [
        "s",
        "e"
      ],
      [
        "32",
        "0"
      ],
      [
        "te",
        "p"
      ],
      [
        "39",
        "0"
      ],
      [
        "ig",
        "n"
      ],
      [
        "Ġ",
        "x"
      ],
      [
        "t",
        "n"
      ],
      [
        "Ġd",
        "isc"
      ],
      [
        "7",
        "4"
      ],
      [
        "red",
        "it"
      ],
      [
        "9",
        "4"
      ],
      [
        "x",
        "ad"
      ],
      [
        "m",
        "onth"
      ],
      [
        "in",
        "cip"
      ],
      [
        "Ġy",
        "ield"
      ],
      [
        "67",
        "12"
      ],
      [
        "Ġcomp",
        "ound"
      ],
      [
        "660",
        "262"
      ],
      [
        "Ġb",
        "ank"
      ],
      [
        "Ġ",
        "up"
      ],
      [
        "Ġthe",
        "n"
      ],
      [
        "50",
        "2"
      ],
      [
        "Ġt",
        "erm"
      ],
      [
        "n",
        "p"
      ],
      [
        "9",
        "3"
      ],
      [
        "Ġ",
        "40"
      ],
      [
        "a",
        "re"
      ],
      [
        "Ġd",
        "es"
      ],
      [
        "ter",
        "m"
      ],
      [
        "ul",
        "l"
      ],
      [
        "and",
        "ard"
      ],
      [
        "istrib",
        "ut"
      ],
      [
        "d",
        "n"
      ],
      [
        "Ġ1",
        "5"
      ],
      [
        "ir",
        "st"
      ],
      [
        "Ġde",
        "c"
      ],
      [
        "Ġin",
        "s"
      ],
      [
        "Ġsp",
        "read"
      ],
      [
        "ru",
        "ct"
      ],
      [
        "Ġappr",
        "o"
      ],
      [
        "Ġex",
        "pl"
      ],
      [
        "Ġre",
        "l"
      ],
      [
        "n",
        "c"
      ],
      [
        "Ġh",
        "igh"
      ],
      [
        "as",
        "ur"
      ],
      [
        "o",
        "ff"
      ],
      [
        "0",
        "99"
      ],
      [
        "Ġg",
        "o"
      ],
      [
        "Ġpres",
        "s"
      ],
      [
        "Ġc",
        "redit"
      ],
      [
        "7",
        "1"
      ],
      [
        "nin",
        "e"
      ],
      [
        "ver",
        "ag"
      ],
      [
        "s",
        "i"
      ],
      [
        "l",
        "in"
      ],
      [
        "Ġcurr",
        "enc"
      ],
      [
        "Ġf",
        "iven"
      ],
      [
        "36",
        "0"
      ],
      [
        "Ġf",
        "irst"
      ],
      [
        "Ġ",
        "end"
      ],
      [
        "00",
        "00"
      ],
      [
        "oll",
        "ar"
      ],
      [
        "Ġw",
        "ay"
      ],
      [
        "an",
        "t"
      ],
      [
        "n",
        "f"
      ],
      [
        "y",
        "n"
      ],
      [
        "33",
        "0"
      ],
      [
        "et",
        "h"
      ],
      [
        "Ġthe",
        "y"
      ],
      [
        "22",
        "0"
      ],
      [
        "Ġthre",
        "en"
      ],
      [
        "Ġ3",
        "8"
      ],
      [
        "Ġequ",
        "al"
      ],
      [
        "act",
        "or"
      ],
      [
        "35",
        "00"
      ],
      [
        "57",
        "5"
      ],
      [
        "Ġeigh",
        "ty"
      ],
      [
        "up",
        "on"
      ],
      [
        "at",
        "ion"
      ],
      [
        "Ġpr",
        "incip"
      ],
      [
        "8",
        "50"
      ],
      [
        "Ġd",
        "istribut"
      ],
      [
        "Ġl",
        "ong"
      ],
      [
        "Ġtran",
        "ch"
      ],
      [
        "Ġl",
        "arg"
      ],
      [
        "Ġj",
        "ournal"
      ],
      [
        "Ġbec",
        "aus"
      ],
      [
        "Ġbecaus",
        "e"
      ],
      [
        "Ġbu",
        "y"
      ],
      [
        "Ġa",
        "verag"
      ],
      [
        "Ġinc",
        "reas"
      ],
      [
        "Ġnum",
        "ber"
      ],
      [
        "a",
        "il"
      ],
      [
        "Ġme",
        "asur"
      ],
      [
        "Ġinvest",
        "or"
      ],
      [
        "Ġn",
        "n"
      ],
      [
        "Ġs",
        "tep"
      ],
      [
        "Ġpay",
        "ment"
      ],
      [
        "Ġfour",
        "teen"
      ],
      [
        "Ġg",
        "amma"
      ],
      [
        "Ġam",
        "ount"
      ],
      [
        "Ġco",
        "st"
      ],
      [
        "u",
        "g"
      ],
      [
        "Ġappro",
        "ach"
      ],
      [
        "v",
        "id"
      ],
      [
        "Ġg",
        "ive"
      ],
      [
        "Ġcas",
        "h"
      ],
      [
        "Ġo",
        "b"
      ],
      [
        "Ġn",
        "st"
      ],
      [
        "Ġexpl",
        "ain"
      ],
      [
        "Ġpay",
        "off"
      ],
      [
        "Ġd",
        "ur"
      ],
      [
        "Ġa",
        "cc"
      ],
      [
        "Ġtw",
        "enti"
      ],
      [
        "Ġ108000",
        "5"
      ],
      [
        "Ġ",
        "u"
      ],
      [
        "Ġthe",
        "se"
      ],
      [
        "Ġ133",
        "00"
      ],
      [
        "Ġ",
        "9"
      ],
      [
        "Ġd",
        "ividend"
      ],
      [
        "Ġo",
        "ut"
      ],
      [
        "72",
        "0"
      ],
      [
        "ol",
        "d"
      ],
      [
        "506",
        "000"
      ],
      [
        "Ġthere",
        "for"
      ],
      [
        "Ġst",
        "andard"
      ],
      [
        "6",
        "70"
      ],
      [
        "Ġsixt",
        "y"
      ],
      [
        "p",
        "end"
      ],
      [
        "o",
        "ut"
      ],
      [
        "Ġtra",
        "der"
      ],
      [
        "g",
        "at"
      ],
      [
        "Ġa",
        "g"
      ],
      [
        "om",
        "i"
      ],
      [
        "ti",
        "c"
      ],
      [
        "Ġfl",
        "o"
      ],
      [
        "Ġw",
        "ere"
      ],
      [
        "Ġf",
        "oll"
      ],
      [
        "Ġimpl",
        "i"
      ],
      [
        "Ġfoll",
        "ow"
      ],
      [
        "f",
        "it"
      ],
      [
        "Ġnine",
        "teen"
      ],
      [
        "four",
        "n"
      ],
      [
        "Ġ2",
        "7"
      ],
      [
        "k",
        "i"
      ],
      [
        "Ġs",
        "n"
      ],
      [
        "Ġfin",
        "anc"
      ],
      [
        "Ġnp",
        "r"
      ],
      [
        "Ġdes",
        "c"
      ],
      [
        "Ġs",
        "et"
      ],
      [
        "62",
        "0"
      ],
      [
        "Ġc",
        "ap"
      ],
      [
        "Ġnum",
        "er"
      ],
      [
        "19",
        "0"
      ],
      [
        "Ġd",
        "ate"
      ],
      [
        "g",
        "in"
      ],
      [
        "Ġres",
        "ult"
      ],
      [
        "Ġthir",
        "teen"
      ],
      [
        "ti",
        "t"
      ],
      [
        "Ġn",
        "or"
      ],
      [
        "Ġin",
        "to"
      ],
      [
        "Ġhow",
        "ev"
      ],
      [
        "Ġcor",
        "rel"
      ],
      [
        "l",
        "o"
      ],
      [
        "in",
        "omi"
      ],
      [
        "18",
        "0"
      ],
      [
        "9",
        "50"
      ],
      [
        "s",
        "ki"
      ],
      [
        "Ġsec",
        "tion"
      ],
      [
        "e",
        "c"
      ],
      [
        "Ġs",
        "ell"
      ],
      [
        "ne",
        "utr"
      ],
      [
        "Ġw",
        "as"
      ],
      [
        "Ġne",
        "x"
      ],
      [
        "us",
        "s"
      ],
      [
        "ter",
        "n"
      ],
      [
        "s",
        "o"
      ],
      [
        "Ġproc",
        "ess"
      ],
      [
        "ch",
        "n"
      ],
      [
        "Ġno",
        "f"
      ],
      [
        "Ġ2",
        "5"
      ],
      [
        "Ġme",
        "an"
      ],
      [
        "4",
        "99"
      ],
      [
        "Ġpro",
        "vid"
      ],
      [
        "Ġcur",
        "v"
      ],
      [
        "Ġb",
        "l"
      ],
      [
        "Ġ3",
        "2"
      ],
      [
        "Ġres",
        "pect"
      ],
      [
        "6",
        "48"
      ],
      [
        "12",
        "0"
      ],
      [
        "Ġvari",
        "anc"
      ],
      [
        "Ġn",
        "h"
      ],
      [
        "ad",
        "e"
      ],
      [
        "Ġan",
        "al"
      ],
      [
        "ol",
        "v"
      ],
      [
        "Ġre",
        "g"
      ],
      [
        "48",
        "1"
      ],
      [
        "Ġ2",
        "9"
      ],
      [
        "7",
        "00"
      ],
      [
        "te",
        "m"
      ],
      [
        "Ġus",
        "ual"
      ],
      [
        "1",
        "99"
      ],
      [
        "Ġal",
        "so"
      ],
      [
        "4",
        "100"
      ],
      [
        "u",
        "d"
      ],
      [
        "Ġan",
        "y"
      ],
      [
        "in",
        "u"
      ],
      [
        "Ġe",
        "ar"
      ],
      [
        "6",
        "77"
      ],
      [
        "15",
        "9"
      ],
      [
        "th",
        "ir"
      ],
      [
        "Ġbl",
        "ack"
      ],
      [
        "c",
        "o"
      ],
      [
        "Ġne",
        "w"
      ],
      [
        "Ġd",
        "ollar"
      ],
      [
        "mal",
        "l"
      ],
      [
        "3",
        "48"
      ],
      [
        "479",
        "000"
      ],
      [
        "term",
        "in"
      ],
      [
        "Ġp",
        "l"
      ],
      [
        "15",
        "2"
      ],
      [
        "u",
        "c"
      ],
      [
        "b",
        "r"
      ],
      [
        "Ġe",
        "ff"
      ],
      [
        "Ġsh",
        "ould"
      ],
      [
        "un",
        "c"
      ],
      [
        "ruct",
        "ur"
      ],
      [
        "b",
        "or"
      ],
      [
        "50",
        "4815"
      ],
      [
        "6",
        "38"
      ],
      [
        "Ġm",
        "ade"
      ],
      [
        "Ġn",
        "v"
      ],
      [
        "Ġs",
        "mall"
      ],
      [
        "thre",
        "en"
      ],
      [
        "Ġpar",
        "ti"
      ],
      [
        "Ġflo",
        "at"
      ],
      [
        "Ġcas",
        "e"
      ],
      [
        "r",
        "ow"
      ],
      [
        "l",
        "y"
      ],
      [
        "Ġp",
        "a"
      ],
      [
        "Ġbec",
        "om"
      ],
      [
        "Ġnin",
        "en"
      ],
      [
        "Ġfor",
        "m"
      ],
      [
        "g",
        "n"
      ],
      [
        "45",
        "8"
      ],
      [
        "Ġin",
        "d"
      ],
      [
        "n",
        "n"
      ],
      [
        "Ġf",
        "ix"
      ],
      [
        "l",
        "d"
      ],
      [
        "Ġb",
        "oth"
      ],
      [
        "Ġsim",
        "ul"
      ],
      [
        "Ġanal",
        "y"
      ],
      [
        "ce",
        "iv"
      ],
      [
        "Ġno",
        "te"
      ],
      [
        "qu",
        "ir"
      ],
      [
        "4",
        "45"
      ],
      [
        "Ġon",
        "ly"
      ],
      [
        "Ġc",
        "d"
      ],
      [
        "7",
        "3"
      ],
      [
        "Ġ",
        "42"
      ],
      [
        "Ġdef",
        "in"
      ],
      [
        "52",
        "0"
      ],
      [
        "Ġv",
        "er"
      ],
      [
        "v",
        "olv"
      ],
      [
        "f",
        "if"
      ],
      [
        "e",
        "w"
      ],
      [
        "s",
        "u"
      ],
      [
        "Ġl",
        "ess"
      ],
      [
        "Ġcurr",
        "ent"
      ],
      [
        "1",
        "70"
      ],
      [
        "ug",
        "h"
      ],
      [
        "Ġ1",
        "2"
      ],
      [
        "3",
        "72"
      ],
      [
        "nin",
        "en"
      ],
      [
        "1",
        "60"
      ],
      [
        "Ġnpr",
        "ice"
      ],
      [
        "Ġe",
        "l"
      ],
      [
        "Ġf",
        "actor"
      ],
      [
        "Ġ1",
        "00"
      ],
      [
        "Ġ3",
        "5"
      ],
      [
        "Ġre",
        "al"
      ],
      [
        "30",
        "8"
      ],
      [
        "Ġst",
        "ructur"
      ],
      [
        "six",
        "n"
      ],
      [
        "Ġpro",
        "fit"
      ],
      [
        "38",
        "0"
      ],
      [
        "Ġbas",
        "i"
      ],
      [
        "Ġn",
        "on"
      ],
      [
        "en",
        "er"
      ],
      [
        "Ġre",
        "fer"
      ],
      [
        "one",
        "y"
      ],
      [
        "Ġcl",
        "ose"
      ],
      [
        "Ġdur",
        "ing"
      ],
      [
        "v",
        "i"
      ],
      [
        "1",
        "10"
      ],
      [
        "Ġdel",
        "iv"
      ],
      [
        "4",
        "60"
      ],
      [
        "4",
        "40"
      ],
      [
        "Ġsh",
        "are"
      ],
      [
        "t",
        "l"
      ],
      [
        "Ġin",
        "volv"
      ],
      [
        "Ġdo",
        "es"
      ],
      [
        "7",
        "50"
      ],
      [
        "Ġ2",
        "8"
      ],
      [
        "tit",
        "ut"
      ],
      [
        "d",
        "ay"
      ],
      [
        "Ġtran",
        "s"
      ],
      [
        "Ġp",
        "re"
      ],
      [
        "Ġmar",
        "gin"
      ],
      [
        "Ġne",
        "gat"
      ],
      [
        "e",
        "st"
      ],
      [
        "Ġsh",
        "own"
      ],
      [
        "45",
        "5"
      ],
      [
        "Ġde",
        "pend"
      ],
      [
        "Ġal",
        "tern"
      ],
      [
        "Ġli",
        "bor"
      ],
      [
        "Ġcont",
        "inu"
      ],
      [
        "Ġn",
        "g"
      ],
      [
        "19",
        "5"
      ],
      [
        "Ġb",
        "ut"
      ],
      [
        "iv",
        "ers"
      ],
      [
        "p",
        "ort"
      ],
      [
        "50",
        "400"
      ],
      [
        "Ġre",
        "ceiv"
      ],
      [
        "c",
        "on"
      ],
      [
        "Ġm",
        "ay"
      ],
      [
        "Ġgo",
        "od"
      ],
      [
        "Ġqu",
        "ot"
      ],
      [
        "Ġdisc",
        "uss"
      ],
      [
        "Ġde",
        "termin"
      ],
      [
        "Ġn",
        "t"
      ],
      [
        "Ġf",
        "und"
      ],
      [
        "j",
        "ust"
      ],
      [
        "16",
        "70"
      ],
      [
        "Ġis",
        "su"
      ],
      [
        "Ġre",
        "quir"
      ],
      [
        "reas",
        "ur"
      ],
      [
        "62",
        "50"
      ],
      [
        "Ġver",
        "y"
      ],
      [
        "re",
        "at"
      ],
      [
        "Ġtwenty",
        "f"
      ],
      [
        "4",
        "36"
      ],
      [
        "Ġl",
        "if"
      ],
      [
        "77",
        "50"
      ],
      [
        "em",
        "ent"
      ],
      [
        "n",
        "b"
      ],
      [
        "4",
        "10"
      ],
      [
        "Ġh",
        "ull"
      ],
      [
        "42",
        "7"
      ],
      [
        "1",
        "22"
      ],
      [
        "48",
        "9"
      ],
      [
        "5",
        "12"
      ],
      [
        "Ġnor",
        "mal"
      ],
      [
        "Ġb",
        "inomi"
      ],
      [
        "3",
        "40"
      ],
      [
        "1",
        "39"
      ],
      [
        "Ġfif",
        "teen"
      ],
      [
        "Ġte",
        "chn"
      ],
      [
        "a",
        "x"
      ],
      [
        "Ġt",
        "end"
      ],
      [
        "g",
        "i"
      ],
      [
        "lin",
        "e"
      ],
      [
        "Ġcom",
        "m"
      ],
      [
        "Ġlttext",
        "line"
      ],
      [
        "Ġlttextline",
        "horizont"
      ],
      [
        "50",
        "60"
      ],
      [
        "Ġ2",
        "6"
      ],
      [
        "62",
        "500"
      ],
      [
        "Ġ1",
        "9"
      ],
      [
        "00",
        "2"
      ],
      [
        "3",
        "17"
      ],
      [
        "Ġthe",
        "ir"
      ],
      [
        "ust",
        "r"
      ],
      [
        "o",
        "k"
      ],
      [
        "Ġt",
        "y"
      ],
      [
        "Ġin",
        "iti"
      ],
      [
        "16",
        "60"
      ],
      [
        "Ġsp",
        "ot"
      ],
      [
        "fif",
        "ty"
      ],
      [
        "Ġapp",
        "l"
      ],
      [
        "47",
        "8"
      ],
      [
        "Ġno",
        "ption"
      ],
      [
        "b",
        "it"
      ],
      [
        "Ġcomp",
        "ut"
      ],
      [
        "Ġn",
        "for"
      ],
      [
        "Ġ4",
        "62500"
      ],
      [
        "if",
        "i"
      ],
      [
        "Ġle",
        "ad"
      ],
      [
        "p",
        "ay"
      ],
      [
        "pp",
        "en"
      ],
      [
        "Ġg",
        "iven"
      ],
      [
        "ar",
        "t"
      ],
      [
        "il",
        "e"
      ],
      [
        "3",
        "65"
      ],
      [
        "Ġequ",
        "iti"
      ],
      [
        "Ġsec",
        "ur"
      ],
      [
        "en",
        "s"
      ],
      [
        "Ġm",
        "ake"
      ],
      [
        "m",
        "an"
      ],
      [
        "âĢ",
        "²"
      ],
      [
        "Ġl",
        "ow"
      ],
      [
        "Ġc",
        "ar"
      ],
      [
        "Ġlif",
        "e"
      ],
      [
        "Ġbe",
        "en"
      ],
      [
        "89",
        "0"
      ],
      [
        "as",
        "s"
      ],
      [
        "Ġ",
        "000"
      ],
      [
        "Ġd",
        "own"
      ],
      [
        "90",
        "250"
      ],
      [
        "res",
        "s"
      ],
      [
        "gn",
        "or"
      ],
      [
        "Ġha",
        "ppen"
      ],
      [
        "30",
        "4"
      ],
      [
        "ur",
        "ther"
      ],
      [
        "42",
        "1"
      ],
      [
        "i",
        "p"
      ],
      [
        "Ġco",
        "upon"
      ],
      [
        "k",
        "ol"
      ],
      [
        "Ġad",
        "just"
      ],
      [
        "ert",
        "on"
      ],
      [
        "o",
        "ch"
      ],
      [
        "6712",
        "62"
      ],
      [
        "thir",
        "ty"
      ],
      [
        "479000",
        "671262"
      ],
      [
        "Ġ2",
        "2"
      ],
      [
        "506",
        "00"
      ],
      [
        "660262",
        "479000671262"
      ],
      [
        "w",
        "ay"
      ],
      [
        "Ġs",
        "zero"
      ],
      [
        "Ġ97000",
        "660262"
      ],
      [
        "Ġinte",
        "ract"
      ],
      [
        "och",
        "ast"
      ],
      [
        "ath",
        "er"
      ],
      [
        "seven",
        "n"
      ],
      [
        "Ġthir",
        "ti"
      ],
      [
        "Ġ2",
        "4"
      ],
      [
        "Ġcons",
        "ist"
      ],
      [
        "Ġrisk",
        "neutr"
      ],
      [
        "es",
        "n"
      ],
      [
        "Ġvari",
        "at"
      ],
      [
        "Ġwor",
        "ld"
      ],
      [
        "el",
        "v"
      ],
      [
        "Ġhund",
        "red"
      ],
      [
        "ra",
        "g"
      ],
      [
        "s",
        "ch"
      ],
      [
        "Ġpres",
        "ent"
      ],
      [
        "Ġnw",
        "h"
      ],
      [
        "gnor",
        "m"
      ],
      [
        "Ġne",
        "xt"
      ],
      [
        "reasur",
        "i"
      ],
      [
        "i",
        "an"
      ],
      [
        "Ġp",
        "ur"
      ],
      [
        "3",
        "99"
      ],
      [
        "Ġ",
        "ill"
      ],
      [
        "con",
        "om"
      ],
      [
        "Ġpr",
        "ac"
      ],
      [
        "8",
        "10"
      ],
      [
        "Ġfif",
        "ti"
      ],
      [
        "bit",
        "rag"
      ],
      [
        "is",
        "h"
      ],
      [
        "Ġins",
        "titut"
      ],
      [
        "30",
        "2"
      ],
      [
        "Ġpa",
        "id"
      ],
      [
        "t",
        "al"
      ],
      [
        "Ġn",
        "re"
      ],
      [
        "Ġe",
        "dn"
      ],
      [
        "10",
        "4"
      ],
      [
        "er",
        "v"
      ],
      [
        "Ġs",
        "pe"
      ],
      [
        "ev",
        "el"
      ],
      [
        "1",
        "35"
      ],
      [
        "ul",
        "a"
      ],
      [
        "o",
        "u"
      ],
      [
        "al",
        "l"
      ],
      [
        "n",
        "m"
      ],
      [
        "p",
        "ar"
      ],
      [
        "Ġv",
        "ar"
      ],
      [
        "ri",
        "pt"
      ],
      [
        "42",
        "8"
      ],
      [
        "a",
        "k"
      ],
      [
        "sh",
        "ip"
      ],
      [
        "1",
        "12"
      ],
      [
        "unc",
        "tion"
      ],
      [
        "Ġto",
        "tal"
      ],
      [
        "Ġ",
        "45"
      ],
      [
        "Ġis",
        "n"
      ],
      [
        "ic",
        "i"
      ],
      [
        "um",
        "ent"
      ],
      [
        "Ġn",
        "one"
      ],
      [
        "Ġe",
        "m"
      ],
      [
        "cul",
        "ar"
      ],
      [
        "Ġwor",
        "th"
      ],
      [
        "6712",
        "95"
      ],
      [
        "Ġs",
        "ci"
      ],
      [
        "4",
        "48"
      ],
      [
        "Ġso",
        "f"
      ],
      [
        "p",
        "tem"
      ],
      [
        "Ġmar",
        "ch"
      ],
      [
        "50400",
        "1670"
      ],
      [
        "67",
        "6"
      ],
      [
        "3",
        "22"
      ],
      [
        "Ġnp",
        "ro"
      ],
      [
        "72",
        "90"
      ],
      [
        "Ġun",
        "it"
      ],
      [
        "Ġill",
        "ustr"
      ],
      [
        "9",
        "20"
      ],
      [
        "Ġun",
        "ivers"
      ],
      [
        "6",
        "80"
      ],
      [
        "19",
        "8"
      ],
      [
        "00",
        "5065"
      ],
      [
        "Ġe",
        "conom"
      ],
      [
        "ation",
        "ship"
      ],
      [
        "enti",
        "f"
      ],
      [
        "1",
        "40"
      ],
      [
        "Ġar",
        "t"
      ],
      [
        "1",
        "16"
      ],
      [
        "p",
        "os"
      ],
      [
        "Ġt",
        "ake"
      ],
      [
        "Ġg",
        "ain"
      ],
      [
        "id",
        "e"
      ],
      [
        "an",
        "ag"
      ],
      [
        "Ġdeliv",
        "eri"
      ],
      [
        "Ġprac",
        "tic"
      ],
      [
        "Ġm",
        "ust"
      ],
      [
        "Ġk",
        "e"
      ],
      [
        "u",
        "kol"
      ],
      [
        "Ġb",
        "ar"
      ],
      [
        "tter",
        "l"
      ],
      [
        "ukol",
        "ski"
      ],
      [
        "Ġf",
        "n"
      ],
      [
        "Ġc",
        "am"
      ],
      [
        "ann",
        "eri"
      ],
      [
        "id",
        "g"
      ],
      [
        "br",
        "idg"
      ],
      [
        "Ġcam",
        "bridg"
      ],
      [
        "Ġb",
        "us"
      ],
      [
        "535",
        "504001670"
      ],
      [
        "1660",
        "535504001670"
      ],
      [
        "1660535504001670",
        "535"
      ],
      [
        "00",
        "4815"
      ],
      [
        "Ġind",
        "ic"
      ],
      [
        "Ġzeron",
        "zero"
      ],
      [
        "ptem",
        "b"
      ],
      [
        "Ġfor",
        "e"
      ],
      [
        "Ġ3",
        "9"
      ],
      [
        "Ġrel",
        "at"
      ],
      [
        "l",
        "ow"
      ],
      [
        "1",
        "15"
      ],
      [
        "1",
        "62"
      ],
      [
        "Ġre",
        "cip"
      ],
      [
        "Ġcon",
        "st"
      ],
      [
        "ag",
        "em"
      ],
      [
        "Ġfore",
        "ign"
      ],
      [
        "Ġ13299",
        "85"
      ],
      [
        "Ġlo",
        "gnorm"
      ],
      [
        "Ġsu",
        "ch"
      ],
      [
        "Ġin",
        "ter"
      ],
      [
        "Ġ97000660262",
        "11"
      ],
      [
        "Ġsci",
        "entif"
      ],
      [
        "Ġear",
        "li"
      ],
      [
        "Ġfl",
        "anneri"
      ],
      [
        "Ġ462500",
        "660262479000671262"
      ],
      [
        "Ġf",
        "unction"
      ],
      [
        "4",
        "62"
      ],
      [
        "Ġwor",
        "k"
      ],
      [
        "Ġmove",
        "ment"
      ],
      [
        "Ġab",
        "out"
      ],
      [
        "p",
        "ond"
      ],
      [
        "40",
        "2"
      ],
      [
        "Ġvalu",
        "at"
      ],
      [
        "ol",
        "es"
      ],
      [
        "Ġm",
        "anag"
      ],
      [
        "Ġ9700066026211",
        "6250"
      ],
      [
        "0",
        "9"
      ],
      [
        "50",
        "5065"
      ],
      [
        "Ġrel",
        "ationship"
      ],
      [
        "Ġtwenty",
        "two"
      ],
      [
        "r",
        "or"
      ],
      [
        "35",
        "8"
      ],
      [
        "Ġel",
        "even"
      ],
      [
        "si",
        "bl"
      ],
      [
        "Ġpr",
        "od"
      ],
      [
        "res",
        "pond"
      ],
      [
        "Ġte",
        "ukolski"
      ],
      [
        "Ġc",
        "reat"
      ],
      [
        "b",
        "in"
      ],
      [
        "ve",
        "tterl"
      ],
      [
        "3",
        "00"
      ],
      [
        "p",
        "er"
      ],
      [
        "Ġpos",
        "sibl"
      ],
      [
        "Ġdesc",
        "ript"
      ],
      [
        "4",
        "39"
      ],
      [
        "50",
        "7"
      ],
      [
        "w",
        "o"
      ],
      [
        "Ġ72000",
        "660"
      ],
      [
        "Ġ",
        "47"
      ],
      [
        "3",
        "70"
      ],
      [
        "Ġbe",
        "ing"
      ],
      [
        "Ġparti",
        "cular"
      ],
      [
        "4",
        "22"
      ],
      [
        "82",
        "5"
      ],
      [
        "Ġn",
        "j"
      ],
      [
        "88",
        "50"
      ],
      [
        "4",
        "32"
      ],
      [
        "Ġ1330005",
        "7290"
      ],
      [
        "Ġst",
        "rate"
      ],
      [
        "Ġ3",
        "6"
      ],
      [
        "i",
        "te"
      ],
      [
        "Ġn",
        "to"
      ],
      [
        "Ġch",
        "o"
      ],
      [
        "Ġsec",
        "ond"
      ],
      [
        "t",
        "ain"
      ],
      [
        "es",
        "tion"
      ],
      [
        "770",
        "10"
      ],
      [
        "1",
        "48"
      ],
      [
        "Ġacc",
        "ount"
      ],
      [
        "Ġthre",
        "er"
      ],
      [
        "Ġqu",
        "estion"
      ],
      [
        "Ġthreer",
        "d"
      ],
      [
        "1",
        "36"
      ],
      [
        "Ġt",
        "reasuri"
      ],
      [
        "Ġn",
        "vetterl"
      ],
      [
        "16",
        "65"
      ],
      [
        "506000",
        "77010"
      ],
      [
        "Ġ13300057290",
        "50600077010"
      ],
      [
        "3",
        "62"
      ],
      [
        "Ġeff",
        "ect"
      ],
      [
        "Ġ",
        "80"
      ],
      [
        "Ġ2",
        "00"
      ],
      [
        "c",
        "ess"
      ],
      [
        "Ġen",
        "ter"
      ],
      [
        "a",
        "ce"
      ],
      [
        "Ġ97000660262116250",
        "671295"
      ],
      [
        "eight",
        "n"
      ],
      [
        "4",
        "12"
      ],
      [
        "Ġ1",
        "99"
      ],
      [
        "1",
        "46"
      ],
      [
        "Ġn",
        "r"
      ],
      [
        "Ġappl",
        "ic"
      ],
      [
        "c",
        "ent"
      ],
      [
        "te",
        "rest"
      ],
      [
        "Ġse",
        "ptemb"
      ],
      [
        "5",
        "89"
      ],
      [
        "Ġ",
        "44"
      ],
      [
        "ce",
        "pt"
      ],
      [
        "Ġstrate",
        "gi"
      ],
      [
        "Ġ133000",
        "57"
      ],
      [
        "iz",
        "e"
      ],
      [
        "Ġnth",
        "at"
      ],
      [
        "3",
        "18"
      ],
      [
        "er",
        "ror"
      ],
      [
        "ic",
        "en"
      ],
      [
        "Ġderiv",
        "agem"
      ],
      [
        "Ġin",
        "st"
      ],
      [
        "Ġfl",
        "ow"
      ],
      [
        "Ġj",
        "un"
      ],
      [
        "Ġreg",
        "ul"
      ],
      [
        "at",
        "a"
      ],
      [
        "sch",
        "oles"
      ],
      [
        "ev",
        "i"
      ],
      [
        "en",
        "g"
      ],
      [
        "Ġn",
        "rate"
      ],
      [
        "ert",
        "ain"
      ],
      [
        "Ġg",
        "ener"
      ],
      [
        "3",
        "10"
      ],
      [
        "34",
        "42"
      ],
      [
        "Ġbus",
        "i"
      ],
      [
        "37",
        "9"
      ],
      [
        "s",
        "erv"
      ],
      [
        "Ġob",
        "tain"
      ],
      [
        "Ġf",
        "urther"
      ],
      [
        "Ġsix",
        "teen"
      ],
      [
        "Ġtw",
        "elv"
      ],
      [
        "p",
        "or"
      ],
      [
        "am",
        "et"
      ],
      [
        "3",
        "19"
      ],
      [
        "m",
        "erton"
      ],
      [
        "ver",
        "s"
      ],
      [
        "Ġs",
        "ampl"
      ],
      [
        "4",
        "15"
      ],
      [
        "Ġy",
        "ou"
      ],
      [
        "Ġninety",
        "nin"
      ],
      [
        "Ġ1",
        "7"
      ],
      [
        "Ġs",
        "ize"
      ],
      [
        "or",
        "row"
      ],
      [
        "Ġwh",
        "ite"
      ],
      [
        "60",
        "70"
      ],
      [
        "Ġtrans",
        "act"
      ],
      [
        "7",
        "40"
      ],
      [
        "n",
        "t"
      ],
      [
        "Ġset",
        "tl"
      ],
      [
        "Ġhundred",
        "n"
      ],
      [
        "6",
        "15"
      ],
      [
        "Ġmo",
        "st"
      ],
      [
        "33",
        "2"
      ],
      [
        "46",
        "8"
      ],
      [
        "Ġfour",
        "n"
      ],
      [
        "Ġn",
        "de"
      ],
      [
        "Ġm",
        "ani"
      ],
      [
        "r",
        "ol"
      ],
      [
        "Ġnst",
        "ock"
      ],
      [
        "47",
        "12"
      ],
      [
        "3",
        "15"
      ],
      [
        "4",
        "38"
      ],
      [
        "em",
        "b"
      ],
      [
        "Ġ",
        "60"
      ],
      [
        "Ġtwon",
        "zero"
      ],
      [
        "82",
        "34"
      ],
      [
        "4",
        "42"
      ],
      [
        "Ġ",
        "50"
      ],
      [
        "a",
        "v"
      ],
      [
        "48",
        "150"
      ],
      [
        "Ġpar",
        "amet"
      ],
      [
        "Ġcor",
        "respond"
      ],
      [
        "i",
        "qu"
      ],
      [
        "evi",
        "at"
      ],
      [
        "re",
        "ct"
      ],
      [
        "30",
        "6"
      ],
      [
        "9",
        "38"
      ],
      [
        "Ġre",
        "ach"
      ],
      [
        "3",
        "12"
      ],
      [
        "um",
        "m"
      ],
      [
        "Ġ1",
        "1"
      ],
      [
        "Ġcho",
        "os"
      ],
      [
        "for",
        "ty"
      ],
      [
        "Ġpr",
        "icen"
      ],
      [
        "Ġcar",
        "lo"
      ],
      [
        "Ġl",
        "ater"
      ],
      [
        "Ġdesc",
        "rib"
      ],
      [
        "Ġjul",
        "i"
      ],
      [
        "ver",
        "i"
      ],
      [
        "Ġ2",
        "1"
      ],
      [
        "3",
        "45"
      ],
      [
        "4",
        "18"
      ],
      [
        "Ġa",
        "a"
      ],
      [
        "Ġr",
        "ather"
      ],
      [
        "en",
        "i"
      ],
      [
        "Ġd",
        "ata"
      ],
      [
        "502",
        "34"
      ],
      [
        "Ġ1329985",
        "7080"
      ],
      [
        "Ġdisc",
        "ount"
      ],
      [
        "506",
        "50"
      ],
      [
        "Ġ3",
        "49"
      ],
      [
        "t",
        "an"
      ],
      [
        "Ġob",
        "serv"
      ],
      [
        "00",
        "5"
      ],
      [
        "Ġm",
        "oney"
      ],
      [
        "bl",
        "em"
      ],
      [
        "ran",
        "ch"
      ],
      [
        "e",
        "p"
      ],
      [
        "Ġtechn",
        "iqu"
      ],
      [
        "j",
        "ect"
      ],
      [
        "o",
        "ugh"
      ],
      [
        "Ġdel",
        "tan"
      ],
      [
        "Ġ15",
        "6070"
      ],
      [
        "159",
        "1665"
      ],
      [
        "50234",
        "1591665"
      ],
      [
        "Ġ156070",
        "502341591665"
      ],
      [
        "Ġ156070502341591665",
        "8234"
      ],
      [
        "em",
        "at"
      ],
      [
        "ath",
        "emat"
      ],
      [
        "2",
        "40"
      ],
      [
        "62",
        "8"
      ],
      [
        "Ġ1",
        "8"
      ],
      [
        "w",
        "n"
      ],
      [
        "Ġm",
        "ont"
      ],
      [
        "Ġsome",
        "tim"
      ],
      [
        "Ġst",
        "ate"
      ],
      [
        "3",
        "42"
      ],
      [
        "e",
        "utr"
      ],
      [
        "o",
        "y"
      ],
      [
        "38",
        "9"
      ],
      [
        "Ġ97",
        "00"
      ],
      [
        "69",
        "0"
      ],
      [
        "n",
        "st"
      ],
      [
        "1",
        "32"
      ],
      [
        "4",
        "33"
      ],
      [
        "it",
        "u"
      ],
      [
        "670",
        "575"
      ],
      [
        "Ġna",
        "re"
      ],
      [
        "Ġ10",
        "800"
      ],
      [
        "Ġdeltan",
        "eutr"
      ],
      [
        "ed",
        "n"
      ],
      [
        "Ġc",
        "ertain"
      ],
      [
        "or",
        "i"
      ],
      [
        "Ġ1",
        "57"
      ],
      [
        "Ġsu",
        "b"
      ],
      [
        "59",
        "8"
      ],
      [
        "Ġcl",
        "ear"
      ],
      [
        "Ġm",
        "athemat"
      ],
      [
        "Ġeight",
        "n"
      ],
      [
        "for",
        "m"
      ],
      [
        "Ġonen",
        "zero"
      ],
      [
        "Ġwh",
        "y"
      ],
      [
        "Ġ132",
        "000"
      ],
      [
        "1",
        "18"
      ],
      [
        "o",
        "b"
      ],
      [
        "Ġcd",
        "s"
      ],
      [
        "Ġar",
        "bitrag"
      ],
      [
        "Ġd",
        "eviat"
      ],
      [
        "Ġeigh",
        "teen"
      ],
      [
        "Ġ2",
        "87"
      ],
      [
        "m",
        "i"
      ],
      [
        "Ġm",
        "ax"
      ],
      [
        "Ġcont",
        "rol"
      ],
      [
        "65",
        "2"
      ],
      [
        "o",
        "f"
      ],
      [
        "ra",
        "d"
      ],
      [
        "ch",
        "as"
      ],
      [
        "Ġnc",
        "ont"
      ],
      [
        "6",
        "32"
      ],
      [
        "4",
        "70"
      ],
      [
        "16",
        "48"
      ],
      [
        "Ġpro",
        "blem"
      ],
      [
        "10",
        "5"
      ],
      [
        "Ġanaly",
        "si"
      ],
      [
        "10",
        "2"
      ],
      [
        "Ġnv",
        "alu"
      ],
      [
        "40",
        "8"
      ],
      [
        "im",
        "it"
      ],
      [
        "Ġcap",
        "it"
      ],
      [
        "Ġ1",
        "77"
      ],
      [
        "g",
        "ag"
      ],
      [
        "Ġf",
        "e"
      ],
      [
        "Ġco",
        "uld"
      ],
      [
        "Ġreal",
        "iz"
      ],
      [
        "co",
        "upon"
      ],
      [
        "3",
        "77"
      ],
      [
        "ail",
        "i"
      ],
      [
        "Ġw",
        "ell"
      ],
      [
        "88",
        "17"
      ],
      [
        "Ġs",
        "itu"
      ],
      [
        "Ġh",
        "e"
      ],
      [
        "1",
        "72"
      ],
      [
        "Ġp",
        "ath"
      ],
      [
        "ort",
        "gag"
      ],
      [
        "Ġins",
        "ur"
      ],
      [
        "676",
        "800"
      ],
      [
        "Ġst",
        "ochast"
      ],
      [
        "eth",
        "od"
      ],
      [
        "4",
        "30"
      ],
      [
        "65",
        "18"
      ],
      [
        "ond",
        "it"
      ],
      [
        "Ġb",
        "orrow"
      ],
      [
        "Ġ",
        "46"
      ],
      [
        "48",
        "7"
      ],
      [
        "e",
        "igh"
      ],
      [
        "Ġninen",
        "zero"
      ],
      [
        "f",
        "ter"
      ],
      [
        "o",
        "p"
      ],
      [
        "Ġn",
        "l"
      ],
      [
        "Ġan",
        "oth"
      ],
      [
        "âĢ",
        "³"
      ],
      [
        "ol",
        "e"
      ],
      [
        "ol",
        "der"
      ],
      [
        "99",
        "7"
      ],
      [
        "Ġfour",
        "nzero"
      ],
      [
        "Ġbu",
        "il"
      ],
      [
        "34",
        "48"
      ],
      [
        "pl",
        "oy"
      ],
      [
        "Ġa",
        "two"
      ],
      [
        "1",
        "33"
      ],
      [
        "n",
        "r"
      ],
      [
        "u",
        "ch"
      ],
      [
        "40",
        "9"
      ],
      [
        "ed",
        "i"
      ],
      [
        "un",
        "ter"
      ],
      [
        "Ġgener",
        "al"
      ],
      [
        "49",
        "2"
      ],
      [
        "o",
        "c"
      ],
      [
        "Ġcurv",
        "atur"
      ],
      [
        "Ġst",
        "art"
      ],
      [
        "Ġb",
        "n"
      ],
      [
        "67",
        "60"
      ],
      [
        "Ġli",
        "ke"
      ],
      [
        "6",
        "18"
      ],
      [
        "k",
        "n"
      ],
      [
        "37",
        "99"
      ],
      [
        "Ġsix",
        "n"
      ],
      [
        "Ġeight",
        "nzero"
      ],
      [
        "Ġl",
        "evel"
      ],
      [
        "v",
        "ant"
      ],
      [
        "vant",
        "ag"
      ],
      [
        "88",
        "8"
      ],
      [
        "Ġ3",
        "12"
      ],
      [
        "Ġe",
        "v"
      ],
      [
        "6",
        "35"
      ],
      [
        "eng",
        "th"
      ],
      [
        "Ġexp",
        "ir"
      ],
      [
        "Ġg",
        "re"
      ],
      [
        "Ġm",
        "at"
      ],
      [
        "Ġseven",
        "nzero"
      ],
      [
        "Ġseven",
        "teen"
      ],
      [
        "Ġform",
        "ula"
      ],
      [
        "1",
        "38"
      ],
      [
        "42",
        "9"
      ],
      [
        "49",
        "7"
      ],
      [
        "Ġb",
        "r"
      ],
      [
        "Ġsitu",
        "at"
      ],
      [
        "w",
        "w"
      ],
      [
        "Ġ40",
        "512"
      ],
      [
        "3442",
        "59"
      ],
      [
        "Ġo",
        "ur"
      ],
      [
        "3",
        "16"
      ],
      [
        "Ġdec",
        "emb"
      ],
      [
        "Ġthreen",
        "zero"
      ],
      [
        "Ġ1",
        "45"
      ],
      [
        "ploy",
        "e"
      ],
      [
        "677",
        "8817"
      ],
      [
        "4712",
        "344259"
      ],
      [
        "Ġ40512",
        "4712344259"
      ],
      [
        "Ġ405124712344259",
        "6778817"
      ],
      [
        "4",
        "17"
      ],
      [
        "Ġm",
        "ethod"
      ],
      [
        "Ġo",
        "p"
      ],
      [
        "Ġc",
        "ent"
      ],
      [
        "p",
        "r"
      ],
      [
        "Ġd",
        "aili"
      ],
      [
        "u",
        "ct"
      ],
      [
        "Ġcomm",
        "od"
      ],
      [
        "Ġth",
        "ose"
      ],
      [
        "32",
        "8"
      ],
      [
        "par",
        "ti"
      ],
      [
        "5",
        "10"
      ],
      [
        "Ġs",
        "c"
      ],
      [
        "as",
        "on"
      ],
      [
        "Ġa",
        "fter"
      ],
      [
        "Ġp",
        "n"
      ],
      [
        "ividend",
        "pay"
      ],
      [
        "Ġ",
        "82"
      ],
      [
        "65",
        "90"
      ],
      [
        "Ġco",
        "unt"
      ],
      [
        "Ġwh",
        "o"
      ],
      [
        "Ġs",
        "m"
      ],
      [
        "36",
        "8"
      ],
      [
        "om",
        "p"
      ],
      [
        "a",
        "o"
      ],
      [
        "Ġm",
        "ortgag"
      ],
      [
        "4",
        "35"
      ],
      [
        "Ġne",
        "ed"
      ],
      [
        "49",
        "8"
      ],
      [
        "4",
        "19"
      ],
      [
        "Ġn",
        "ond"
      ],
      [
        "Ġsix",
        "nzero"
      ],
      [
        "Ġassum",
        "pt"
      ],
      [
        "n",
        "twenty"
      ],
      [
        "Ġm",
        "in"
      ],
      [
        "Ġfiven",
        "zero"
      ],
      [
        "two",
        "two"
      ],
      [
        "1",
        "30"
      ],
      [
        "ar",
        "ch"
      ],
      [
        "unter",
        "parti"
      ],
      [
        "Ġinc",
        "om"
      ],
      [
        "22",
        "5"
      ],
      [
        "62",
        "5"
      ],
      [
        "o",
        "ve"
      ],
      [
        "22",
        "8"
      ],
      [
        "Ġ1",
        "44"
      ],
      [
        "6",
        "68"
      ],
      [
        "38",
        "2"
      ],
      [
        "ith",
        "er"
      ],
      [
        "Ġty",
        "pe"
      ],
      [
        "Ġsettl",
        "ement"
      ],
      [
        "n",
        "th"
      ],
      [
        "ra",
        "c"
      ],
      [
        "Ġcomp",
        "ar"
      ],
      [
        "Ġke",
        "ep"
      ],
      [
        "65",
        "8"
      ],
      [
        "55",
        "4"
      ],
      [
        "Ġ0",
        "5"
      ],
      [
        "Ġim",
        "port"
      ],
      [
        "Ġcor",
        "por"
      ],
      [
        "ĠâĢ",
        "¦"
      ],
      [
        "4",
        "72"
      ],
      [
        "Ġapp",
        "li"
      ],
      [
        "67",
        "98"
      ],
      [
        "Ġa",
        "c"
      ],
      [
        "Ġl",
        "n"
      ],
      [
        "6",
        "42"
      ],
      [
        "ing",
        "n"
      ],
      [
        "Ġzero",
        "coupon"
      ],
      [
        "Ġlow",
        "er"
      ],
      [
        "ti",
        "v"
      ],
      [
        "6",
        "37"
      ],
      [
        "Ġb",
        "el"
      ],
      [
        "Ġh",
        "older"
      ],
      [
        "e",
        "g"
      ],
      [
        "18",
        "8"
      ],
      [
        "1",
        "47"
      ],
      [
        "40",
        "5"
      ],
      [
        "32",
        "7"
      ],
      [
        "1",
        "42"
      ],
      [
        "Ġor",
        "der"
      ],
      [
        "Ġs",
        "ide"
      ],
      [
        "Ġnj",
        "ournal"
      ],
      [
        "25",
        "4"
      ],
      [
        "Ġinter",
        "v"
      ],
      [
        "Ġthirty",
        "two"
      ],
      [
        "72",
        "436"
      ],
      [
        "4",
        "16"
      ],
      [
        "Ġd",
        "z"
      ],
      [
        "Ġgre",
        "ater"
      ],
      [
        "Ġthree",
        "month"
      ],
      [
        "35",
        "317"
      ],
      [
        "62",
        "2"
      ],
      [
        "46",
        "4100"
      ],
      [
        "Ġ",
        "70"
      ],
      [
        "Ġprod",
        "uc"
      ],
      [
        "Ġl",
        "ength"
      ],
      [
        "ro",
        "ugh"
      ],
      [
        "Ġnin",
        "terest"
      ],
      [
        "4",
        "37"
      ],
      [
        "r",
        "ument"
      ],
      [
        "Ġ108000",
        "55"
      ],
      [
        "3",
        "46"
      ],
      [
        "ar",
        "ter"
      ],
      [
        "489",
        "72436"
      ],
      [
        "Ġ349",
        "48972436"
      ],
      [
        "6798",
        "11"
      ],
      [
        "35317",
        "679811"
      ],
      [
        "Ġ34948972436",
        "35317679811"
      ],
      [
        "Ġeff",
        "ici"
      ],
      [
        "Ġsmall",
        "er"
      ],
      [
        "n",
        "j"
      ],
      [
        "5065",
        "20"
      ],
      [
        "Ġl",
        "imit"
      ],
      [
        "12",
        "5"
      ],
      [
        "22",
        "2"
      ],
      [
        "Ġoption",
        "sn"
      ],
      [
        "47",
        "4100"
      ],
      [
        "Ġfor",
        "ti"
      ],
      [
        "80",
        "2"
      ],
      [
        "Ġem",
        "ploye"
      ],
      [
        "w",
        "h"
      ],
      [
        "Ġlarg",
        "er"
      ],
      [
        "Ġn",
        "ass"
      ],
      [
        "Ġw",
        "ww"
      ],
      [
        "Ġ",
        "48"
      ],
      [
        "al",
        "n"
      ],
      [
        "Ġdec",
        "reas"
      ],
      [
        "499",
        "55"
      ],
      [
        "Ġ",
        "77"
      ],
      [
        "39",
        "8"
      ],
      [
        "57",
        "9"
      ],
      [
        "Ġtwentyn",
        "in"
      ],
      [
        "Ġtwenty",
        "four"
      ],
      [
        "Ġreg",
        "ard"
      ],
      [
        "Ġnf",
        "igur"
      ],
      [
        "Ġar",
        "g"
      ],
      [
        "Ġsof",
        "r"
      ],
      [
        "Ġ",
        "z"
      ],
      [
        "ist",
        "or"
      ],
      [
        "ann",
        "u"
      ],
      [
        "Ġ1330005",
        "70"
      ],
      [
        "Ġlo",
        "ok"
      ],
      [
        "zero",
        "zero"
      ],
      [
        "Ġexp",
        "os"
      ],
      [
        "Ġ4",
        "3799"
      ],
      [
        "Ġnond",
        "ividendpay"
      ],
      [
        "Ġ43799",
        "1660535504001670535"
      ],
      [
        "Ġim",
        "m"
      ],
      [
        "Ġfifty",
        "thre"
      ],
      [
        "Ġs",
        "ens"
      ],
      [
        "Ġc",
        "ox"
      ],
      [
        "ri",
        "er"
      ],
      [
        "c",
        "al"
      ],
      [
        "ew",
        "ski"
      ],
      [
        "Ġ",
        "Î"
      ],
      [
        "ver",
        "t"
      ],
      [
        "38",
        "93"
      ],
      [
        "Ġthe",
        "ta"
      ],
      [
        "34",
        "50"
      ],
      [
        "oll",
        "ater"
      ],
      [
        "Ġof",
        "f"
      ],
      [
        "w",
        "on"
      ],
      [
        "Ġa",
        "ct"
      ],
      [
        "4815",
        "507"
      ],
      [
        "Ġ177",
        "80"
      ],
      [
        "99",
        "9"
      ],
      [
        "Ġse",
        "mi"
      ],
      [
        "30",
        "7"
      ],
      [
        "b",
        "b"
      ],
      [
        "v",
        "a"
      ],
      [
        "Ġal",
        "way"
      ],
      [
        "1",
        "37"
      ],
      [
        "Ġre",
        "d"
      ],
      [
        "Ġr",
        "oss"
      ],
      [
        "ap",
        "t"
      ],
      [
        "50",
        "5"
      ],
      [
        "ran",
        "t"
      ],
      [
        "Ġex",
        "te"
      ],
      [
        "ol",
        "ut"
      ],
      [
        "6",
        "40"
      ],
      [
        "ti",
        "l"
      ],
      [
        "a",
        "b"
      ],
      [
        "Ġqu",
        "arter"
      ],
      [
        "33",
        "8"
      ],
      [
        "te",
        "ct"
      ],
      [
        "Ġn",
        "ow"
      ],
      [
        "Ġ13299857080",
        "50600"
      ],
      [
        "Ġpur",
        "chas"
      ],
      [
        "p",
        "ic"
      ],
      [
        "Ġim",
        "p"
      ],
      [
        "Ġinst",
        "rument"
      ],
      [
        "80",
        "1"
      ],
      [
        "Ġjun",
        "e"
      ],
      [
        "Ġne",
        "qu"
      ],
      [
        "Ġn",
        "us"
      ],
      [
        "Ġ3",
        "677"
      ],
      [
        "Ġun",
        "c"
      ],
      [
        "Ġh",
        "ad"
      ],
      [
        "il",
        "d"
      ],
      [
        "Ġper",
        "cent"
      ],
      [
        "yn",
        "am"
      ],
      [
        "Ġn",
        "ne"
      ],
      [
        "er",
        "n"
      ],
      [
        "18",
        "2"
      ],
      [
        "250",
        "34"
      ],
      [
        "Ġsemi",
        "annu"
      ],
      [
        "Ġ1329985708050600",
        "676800"
      ],
      [
        "Ġb",
        "o"
      ],
      [
        "Ġbel",
        "ow"
      ],
      [
        "60",
        "2"
      ],
      [
        "80",
        "250"
      ],
      [
        "1",
        "17"
      ],
      [
        "7",
        "48"
      ],
      [
        "16",
        "8"
      ],
      [
        "Ġncont",
        "ract"
      ],
      [
        "4815",
        "40"
      ],
      [
        "Ġ37",
        "9"
      ],
      [
        "Ġnth",
        "is"
      ],
      [
        "ro",
        "up"
      ],
      [
        "Ġnf",
        "in"
      ],
      [
        "506000",
        "76"
      ],
      [
        "Ġnh",
        "edg"
      ],
      [
        "35",
        "2"
      ],
      [
        "ap",
        "sh"
      ],
      [
        "apsh",
        "ot"
      ],
      [
        "Ġre",
        "m"
      ],
      [
        "38",
        "5"
      ],
      [
        "Ġi",
        "e"
      ],
      [
        "19",
        "2"
      ],
      [
        "17",
        "810"
      ],
      [
        "Ġ38",
        "49"
      ],
      [
        "u",
        "ari"
      ],
      [
        "Ġre",
        "ad"
      ],
      [
        "Ġns",
        "h"
      ],
      [
        "464100",
        "49955"
      ],
      [
        "Ġ17780",
        "46410049955"
      ],
      [
        "Ġ1778046410049955",
        "474100"
      ],
      [
        "62",
        "00"
      ],
      [
        "Ġm",
        "uch"
      ],
      [
        "Ġbuil",
        "tn"
      ],
      [
        "320",
        "4815507"
      ],
      [
        "Ġ10800055",
        "3204815507"
      ],
      [
        "Ġ108000553204815507",
        "8850"
      ],
      [
        "Ġl",
        "ast"
      ],
      [
        "nine",
        "teen"
      ],
      [
        "30",
        "5"
      ],
      [
        "Ġpl",
        "us"
      ],
      [
        "1",
        "65"
      ],
      [
        "Ġ3",
        "421"
      ],
      [
        "7080",
        "25034"
      ],
      [
        "390",
        "938"
      ],
      [
        "Ġ38",
        "6518"
      ],
      [
        "3500",
        "372"
      ],
      [
        "455",
        "7750"
      ],
      [
        "7750",
        "3893"
      ],
      [
        "589",
        "3500372"
      ],
      [
        "6590",
        "90250"
      ],
      [
        "254",
        "77503893"
      ],
      [
        "Ġ3677",
        "5893500372"
      ],
      [
        "80250",
        "390938"
      ],
      [
        "17810",
        "3500"
      ],
      [
        "Ġ3849",
        "25477503893"
      ],
      [
        "Ġ3421",
        "708025034"
      ],
      [
        "Ġ386518",
        "80250390938"
      ],
      [
        "Ġ36775893500372",
        "178103500"
      ],
      [
        "Ġ384925477503893",
        "4557750"
      ],
      [
        "Ġ3421708025034",
        "659090250"
      ],
      [
        "Ġ38651880250390938",
        "90250"
      ],
      [
        "Ġbar",
        "rier"
      ],
      [
        "Ġm",
        "ight"
      ],
      [
        "m",
        "e"
      ],
      [
        "Ġtwenty",
        "six"
      ],
      [
        "82",
        "8"
      ],
      [
        "69",
        "8"
      ],
      [
        "Ġfive",
        "year"
      ],
      [
        "n",
        "h"
      ],
      [
        "in",
        "c"
      ],
      [
        "Ġf",
        "act"
      ],
      [
        "Ġe",
        "ither"
      ],
      [
        "es",
        "h"
      ],
      [
        "Ġ20",
        "20"
      ],
      [
        "Ġad",
        "vantag"
      ],
      [
        "Ġad",
        "apt"
      ],
      [
        "Ġn",
        "et"
      ],
      [
        "c",
        "l"
      ],
      [
        "f",
        "iv"
      ],
      [
        "Ġg",
        "old"
      ],
      [
        "Ġ1",
        "47"
      ],
      [
        "Ġimm",
        "edi"
      ],
      [
        "Ġcon",
        "v"
      ],
      [
        "a",
        "ir"
      ],
      [
        "Ġthe",
        "m"
      ],
      [
        "Ġone",
        "year"
      ],
      [
        "Ġab",
        "ove"
      ],
      [
        "Ġc",
        "ondit"
      ],
      [
        "Ġd",
        "ynam"
      ],
      [
        "4",
        "65"
      ],
      [
        "ty",
        "n"
      ],
      [
        "Ġexpos",
        "ur"
      ],
      [
        "6",
        "10"
      ],
      [
        "47",
        "90"
      ],
      [
        "Ġpo",
        "und"
      ],
      [
        "62",
        "7"
      ],
      [
        "52",
        "5"
      ],
      [
        "l",
        "ewski"
      ],
      [
        "Ġ",
        "error"
      ],
      [
        "ig",
        "lewski"
      ],
      [
        "80",
        "4"
      ],
      [
        "16",
        "00"
      ],
      [
        "Ġco",
        "unterparti"
      ],
      [
        "61",
        "39"
      ],
      [
        "Ġag",
        "ain"
      ],
      [
        "48",
        "2"
      ],
      [
        "Ġsm",
        "ile"
      ],
      [
        "36",
        "00"
      ],
      [
        "Ġn",
        "two"
      ],
      [
        "Ġna",
        "pp"
      ],
      [
        "il",
        "i"
      ],
      [
        "im",
        "um"
      ],
      [
        "Ġre",
        "ason"
      ],
      [
        "Ġ133000",
        "47"
      ],
      [
        "el",
        "even"
      ],
      [
        "Ġnd",
        "iffer"
      ],
      [
        "19",
        "7"
      ],
      [
        "Ġd",
        "t"
      ],
      [
        "Ġb",
        "ranch"
      ],
      [
        "16",
        "7"
      ],
      [
        "etw",
        "o"
      ],
      [
        "Ġtwenty",
        "seven"
      ],
      [
        "Ġbas",
        "e"
      ],
      [
        "a",
        "h"
      ],
      [
        "6",
        "12"
      ],
      [
        "Ġj",
        "ust"
      ],
      [
        "16",
        "9"
      ],
      [
        "Ġnc",
        "on"
      ],
      [
        "45",
        "10"
      ],
      [
        "Ġpur",
        "pos"
      ],
      [
        "Ġm",
        "esh"
      ],
      [
        "Ġv",
        "ers"
      ],
      [
        "Ġto",
        "day"
      ],
      [
        "b",
        "u"
      ],
      [
        "Ġh",
        "istor"
      ],
      [
        "e",
        "x"
      ],
      [
        "49",
        "5"
      ],
      [
        "Ġt",
        "r"
      ],
      [
        "or",
        "ont"
      ],
      [
        "Ġfin",
        "al"
      ],
      [
        "pl",
        "ic"
      ],
      [
        "Ġy",
        "en"
      ],
      [
        "Ġ1",
        "3"
      ],
      [
        "Ġconst",
        "ant"
      ],
      [
        "Ġre",
        "co"
      ],
      [
        "Ġth",
        "rough"
      ],
      [
        "s",
        "te"
      ],
      [
        "Ġb",
        "bb"
      ],
      [
        "if",
        "f"
      ],
      [
        "n",
        "g"
      ],
      [
        "iv",
        "al"
      ],
      [
        "42",
        "5"
      ],
      [
        "Ġ",
        "96"
      ],
      [
        "Ġ1",
        "4"
      ],
      [
        "Ġear",
        "n"
      ],
      [
        "45",
        "2"
      ],
      [
        "d",
        "it"
      ],
      [
        "ul",
        "ti"
      ],
      [
        "per",
        "ti"
      ],
      [
        "Ġw",
        "ri"
      ],
      [
        "13",
        "50"
      ],
      [
        "Ġdec",
        "lin"
      ],
      [
        "Ġty",
        "pic"
      ],
      [
        "Ġ1",
        "15"
      ],
      [
        "60",
        "5"
      ],
      [
        "9",
        "00"
      ],
      [
        "32",
        "5"
      ],
      [
        "Ġsixt",
        "i"
      ],
      [
        "c",
        "p"
      ],
      [
        "Ġ",
        "500"
      ],
      [
        "f",
        "in"
      ],
      [
        "tim",
        "e"
      ],
      [
        "Ġcon",
        "f"
      ],
      [
        "z",
        "z"
      ],
      [
        "Ġ3",
        "85"
      ],
      [
        "458",
        "62"
      ],
      [
        "39",
        "7"
      ],
      [
        "42",
        "00"
      ],
      [
        "Ġg",
        "ao"
      ],
      [
        "Ġred",
        "uc"
      ],
      [
        "Ġnb",
        "e"
      ],
      [
        "ot",
        "man"
      ],
      [
        "33",
        "9"
      ],
      [
        "Ġrem",
        "ain"
      ],
      [
        "z",
        "ard"
      ],
      [
        "11",
        "00"
      ],
      [
        "n",
        "l"
      ],
      [
        "12",
        "7"
      ],
      [
        "46",
        "00"
      ],
      [
        "1",
        "77"
      ],
      [
        "ree",
        "ment"
      ],
      [
        "s",
        "on"
      ],
      [
        "Ġo",
        "il"
      ],
      [
        "Ġd",
        "n"
      ],
      [
        "Ġspe",
        "c"
      ],
      [
        "Ġsn",
        "apshot"
      ],
      [
        "Ġf",
        "iglewski"
      ],
      [
        "f",
        "n"
      ],
      [
        "if",
        "t"
      ],
      [
        "70",
        "2"
      ],
      [
        "19",
        "50"
      ],
      [
        "Ġ3",
        "3"
      ],
      [
        "6",
        "30"
      ],
      [
        "Ġthir",
        "d"
      ],
      [
        "35",
        "7"
      ],
      [
        "6",
        "50"
      ],
      [
        "Ġr",
        "n"
      ],
      [
        "n",
        "v"
      ],
      [
        "Ġex",
        "act"
      ],
      [
        "0",
        "5"
      ],
      [
        "Ġn",
        "at"
      ],
      [
        "en",
        "ari"
      ],
      [
        "ut",
        "oront"
      ],
      [
        "70",
        "150"
      ],
      [
        "utoront",
        "oc"
      ],
      [
        "st",
        "and"
      ],
      [
        "348",
        "62"
      ],
      [
        "32",
        "9"
      ],
      [
        "Ġr",
        "ight"
      ],
      [
        "o",
        "st"
      ],
      [
        "us",
        "iel"
      ],
      [
        "usiel",
        "a"
      ],
      [
        "qu",
        "enc"
      ],
      [
        "12",
        "00"
      ],
      [
        "18",
        "7"
      ],
      [
        "Ġpercent",
        "ag"
      ],
      [
        "otman",
        "utorontoc"
      ],
      [
        "Ġof",
        "ten"
      ],
      [
        "48",
        "14"
      ],
      [
        "Ġexp",
        "ress"
      ],
      [
        "Ġ1",
        "90"
      ],
      [
        "Ġregul",
        "ar"
      ],
      [
        "Ġf",
        "ace"
      ],
      [
        "Ġc",
        "cp"
      ],
      [
        "Ġh",
        "ere"
      ],
      [
        "fifty",
        "onen"
      ],
      [
        "o",
        "v"
      ],
      [
        "s",
        "tem"
      ],
      [
        "12",
        "9"
      ],
      [
        "Ġnr",
        "isk"
      ],
      [
        "el",
        "f"
      ],
      [
        "12",
        "8"
      ],
      [
        "60",
        "8"
      ],
      [
        "32",
        "00"
      ],
      [
        "69",
        "5"
      ],
      [
        "Ġqu",
        "it"
      ],
      [
        "308",
        "38"
      ],
      [
        "f",
        "ault"
      ],
      [
        "Ġs",
        "old"
      ],
      [
        "um",
        "p"
      ],
      [
        "bin",
        "ste"
      ],
      [
        "binste",
        "in"
[...]
